{
  "version": "1.0",
  "truncation": null,
  "padding": null,
  "added_tokens": [
    {
      "id": 0,
      "content": "[UNK]",
      "single_word": false,
      "lstrip": false,
      "rstrip": false,
      "normalized": false,
      "special": true
    },
    {
      "id": 1,
      "content": "[PAD]",
      "single_word": false,
      "lstrip": false,
      "rstrip": false,
      "normalized": false,
      "special": true
    },
    {
      "id": 2,
      "content": "[SOS]",
      "single_word": false,
      "lstrip": false,
      "rstrip": false,
      "normalized": false,
      "special": true
    },
    {
      "id": 3,
      "content": "[EOS]",
      "single_word": false,
      "lstrip": false,
      "rstrip": false,
      "normalized": false,
      "special": true
    }
  ],
  "normalizer": null,
  "pre_tokenizer": {
    "type": "BertPreTokenizer"
  },
  "post_processor": null,
  "decoder": null,
  "model": {
    "type": "WordPiece",
    "unk_token": "[UNK]",
    "continuing_subword_prefix": "##",
    "max_input_chars_per_word": 100,
    "vocab": {
      "[UNK]": 0,
      "[PAD]": 1,
      "[SOS]": 2,
      "[EOS]": 3,
      "!": 4,
      "\"": 5,
      "#": 6,
      "$": 7,
      "%": 8,
      "&": 9,
      "'": 10,
      "(": 11,
      ")": 12,
      "*": 13,
      "+": 14,
      ",": 15,
      "-": 16,
      ".": 17,
      "/": 18,
      "0": 19,
      "1": 20,
      "2": 21,
      "3": 22,
      "4": 23,
      "5": 24,
      "6": 25,
      "7": 26,
      "8": 27,
      "9": 28,
      ":": 29,
      ";": 30,
      "<": 31,
      "=": 32,
      ">": 33,
      "?": 34,
      "@": 35,
      "A": 36,
      "B": 37,
      "C": 38,
      "D": 39,
      "E": 40,
      "F": 41,
      "G": 42,
      "H": 43,
      "I": 44,
      "J": 45,
      "K": 46,
      "L": 47,
      "M": 48,
      "N": 49,
      "O": 50,
      "P": 51,
      "Q": 52,
      "R": 53,
      "S": 54,
      "T": 55,
      "U": 56,
      "V": 57,
      "W": 58,
      "X": 59,
      "Y": 60,
      "Z": 61,
      "[": 62,
      "\\": 63,
      "]": 64,
      "^": 65,
      "_": 66,
      "`": 67,
      "a": 68,
      "b": 69,
      "c": 70,
      "d": 71,
      "e": 72,
      "f": 73,
      "g": 74,
      "h": 75,
      "i": 76,
      "j": 77,
      "k": 78,
      "l": 79,
      "m": 80,
      "n": 81,
      "o": 82,
      "p": 83,
      "q": 84,
      "r": 85,
      "s": 86,
      "t": 87,
      "u": 88,
      "v": 89,
      "w": 90,
      "x": 91,
      "y": 92,
      "z": 93,
      "{": 94,
      "}": 95,
      "~": 96,
      "": 97,
      "": 98,
      "": 99,
      "": 100,
      "": 101,
      "": 102,
      "": 103,
      "": 104,
      "": 105,
      "": 106,
      "": 107,
      "": 108,
      "": 109,
      "": 110,
      "": 111,
      "": 112,
      "": 113,
      "": 114,
      "": 115,
      "": 116,
      "": 117,
      "": 118,
      "": 119,
      "": 120,
      "": 121,
      "": 122,
      "": 123,
      "": 124,
      "": 125,
      "": 126,
      "": 127,
      "£": 128,
      "©": 129,
      "°": 130,
      "±": 131,
      "¶": 132,
      "·": 133,
      "¹": 134,
      "º": 135,
      "¿": 136,
      "À": 137,
      "Â": 138,
      "Ã": 139,
      "Å": 140,
      "Ë": 141,
      "Í": 142,
      "Ð": 143,
      "Õ": 144,
      "×": 145,
      "Ù": 146,
      "à": 147,
      "á": 148,
      "â": 149,
      "ã": 150,
      "ä": 151,
      "å": 152,
      "ç": 153,
      "è": 154,
      "é": 155,
      "ê": 156,
      "í": 157,
      "ï": 158,
      "ñ": 159,
      "ò": 160,
      "ô": 161,
      "ö": 162,
      "ú": 163,
      "û": 164,
      "ü": 165,
      "đ": 166,
      "ń": 167,
      "ň": 168,
      "ŗ": 169,
      "ś": 170,
      "ş": 171,
      "ţ": 172,
      "ť": 173,
      "ŧ": 174,
      "ƀ": 175,
      "ƒ": 176,
      "́": 177,
      "ก": 178,
      "ข": 179,
      "ฃ": 180,
      "ค": 181,
      "ฅ": 182,
      "ฆ": 183,
      "ง": 184,
      "จ": 185,
      "ฉ": 186,
      "ช": 187,
      "ซ": 188,
      "ฌ": 189,
      "ญ": 190,
      "ฎ": 191,
      "ฏ": 192,
      "ฐ": 193,
      "ฑ": 194,
      "ฒ": 195,
      "ณ": 196,
      "ด": 197,
      "ต": 198,
      "ถ": 199,
      "ท": 200,
      "ธ": 201,
      "น": 202,
      "บ": 203,
      "ป": 204,
      "ผ": 205,
      "ฝ": 206,
      "พ": 207,
      "ฟ": 208,
      "ภ": 209,
      "ม": 210,
      "ย": 211,
      "ร": 212,
      "ฤ": 213,
      "ล": 214,
      "ฦ": 215,
      "ว": 216,
      "ศ": 217,
      "ษ": 218,
      "ส": 219,
      "ห": 220,
      "ฬ": 221,
      "อ": 222,
      "ฮ": 223,
      "ฯ": 224,
      "ะ": 225,
      "ั": 226,
      "า": 227,
      "ำ": 228,
      "ิ": 229,
      "ี": 230,
      "ึ": 231,
      "ื": 232,
      "ุ": 233,
      "ู": 234,
      "ฺ": 235,
      "฿": 236,
      "เ": 237,
      "แ": 238,
      "โ": 239,
      "ใ": 240,
      "ไ": 241,
      "ๅ": 242,
      "ๆ": 243,
      "็": 244,
      "่": 245,
      "้": 246,
      "๊": 247,
      "๋": 248,
      "์": 249,
      "ํ": 250,
      "๎": 251,
      "๏": 252,
      "๐": 253,
      "๑": 254,
      "๒": 255,
      "๓": 256,
      "๔": 257,
      "๕": 258,
      "๖": 259,
      "๗": 260,
      "๘": 261,
      "๙": 262,
      "๛": 263,
      "ᵽ": 264,
      "ᶂ": 265,
      "ᶍ": 266,
      "ḥ": 267,
      "ṃ": 268,
      "ṇ": 269,
      "ẃ": 270,
      "ế": 271,
      "​": 272,
      "‎": 273,
      "–": 274,
      "“": 275,
      "”": 276,
      "‟": 277,
      "…": 278,
      "€": 279,
      "♪": 280,
      "�": 281,
      "##ร": 282,
      "##ื": 283,
      "##อ": 284,
      "##ไ": 285,
      "##ม": 286,
      "##่": 287,
      "##ใ": 288,
      "##ช": 289,
      "##า": 290,
      "##ย": 291,
      "##ซ": 292,
      "##ล": 293,
      "##ั": 294,
      "##ง": 295,
      "##ก": 296,
      "##้": 297,
      "##ส": 298,
      "##น": 299,
      "##จ": 300,
      "##ว": 301,
      "##ค": 302,
      "##ู": 303,
      "##เ": 304,
      "##บ": 305,
      "##ห": 306,
      "##ต": 307,
      "##แ": 308,
      "##พ": 309,
      "##ฒ": 310,
      "##ธ": 311,
      "##ุ": 312,
      "##์": 313,
      "##ี": 314,
      "##ะ": 315,
      "##ท": 316,
      "##ำ": 317,
      "##ณ": 318,
      "##ป": 319,
      "##ถ": 320,
      "##็": 321,
      "##ฉ": 322,
      "##ด": 323,
      "##ศ": 324,
      "##ิ": 325,
      "##ญ": 326,
      "##ข": 327,
      "##โ": 328,
      "##ึ": 329,
      "##ผ": 330,
      "##ฟ": 331,
      "##ภ": 332,
      "##ๆ": 333,
      "##ฮ": 334,
      "##ฺ": 335,
      "##": 336,
      "##ฑ": 337,
      "##": 338,
      "##": 339,
      "##": 340,
      "##": 341,
      "##": 342,
      "##": 343,
      "##ฐ": 344,
      "##ฯ": 345,
      "##๊": 346,
      "##r": 347,
      "##i": 348,
      "##n": 349,
      "##k": 350,
      "##s": 351,
      "##ษ": 352,
      "##e": 353,
      "##b": 354,
      "##g": 355,
      "##l": 356,
      "##u": 357,
      "##t": 358,
      "##w": 359,
      "##o": 360,
      "##f": 361,
      "##h": 362,
      "##G": 363,
      "##c": 364,
      "##N": 365,
      "##a": 366,
      "##m": 367,
      "##ํ": 368,
      "##ฝ": 369,
      "##๋": 370,
      "##0": 371,
      "##d": 372,
      "##ฏ": 373,
      "##P": 374,
      "##I": 375,
      "##ฆ": 376,
      "##J": 377,
      "##y": 378,
      "##": 379,
      "##ฤ": 380,
      "##": 381,
      "##ฃ": 382,
      "##p": 383,
      "##": 384,
      "##": 385,
      "##": 386,
      "##1": 387,
      "##9": 388,
      "##7": 389,
      "##5": 390,
      "##3": 391,
      "##ฎ": 392,
      "##A": 393,
      "##X": 394,
      "##v": 395,
      "##û": 396,
      "##́": 397,
      "##": 398,
      "##": 399,
      "##E": 400,
      "##C": 401,
      "##": 402,
      "##": 403,
      "##L": 404,
      "##O": 405,
      "##S": 406,
      "##H": 407,
      "##U": 408,
      "##K": 409,
      "##D": 410,
      "##8": 411,
      "##z": 412,
      "##ฅ": 413,
      "##": 414,
      "##á": 415,
      "##M": 416,
      "##": 417,
      "##4": 418,
      "##R": 419,
      "##x": 420,
      "##2": 421,
      "##": 422,
      "##ฬ": 423,
      "##ï": 424,
      "##j": 425,
      "##q": 426,
      "##": 427,
      "##T": 428,
      "##F": 429,
      "##": 430,
      "##6": 431,
      "##Y": 432,
      "##V": 433,
      "##B": 434,
      "##": 435,
      "##": 436,
      "##â": 437,
      "##​": 438,
      "##ú": 439,
      "##": 440,
      "##Q": 441,
      "##": 442,
      "##ฌ": 443,
      "##": 444,
      "##W": 445,
      "##ฦ": 446,
      "##Z": 447,
      "##": 448,
      "##♪": 449,
      "##": 450,
      "##í": 451,
      "##ᵽ": 452,
      "##ţ": 453,
      "##": 454,
      "##à": 455,
      "##ṃ": 456,
      "##ü": 457,
      "##ẃ": 458,
      "##ç": 459,
      "##ť": 460,
      "##Ã": 461,
      "##©": 462,
      "##ã": 463,
      "##": 464,
      "##ê": 465,
      "##ᶍ": 466,
      "##ò": 467,
      "##×": 468,
      "##๙": 469,
      "##฿": 470,
      "##ƀ": 471,
      "##๓": 472,
      "##ô": 473,
      "##ş": 474,
      "##๐": 475,
      "##": 476,
      "##ä": 477,
      "##๖": 478,
      "##ñ": 479,
      "##é": 480,
      "##º": 481,
      "##ế": 482,
      "##ń": 483,
      "##ň": 484,
      "##๗": 485,
      "##๕": 486,
      "##£": 487,
      "##๔": 488,
      "##Í": 489,
      "##Â": 490,
      "##Ù": 491,
      "##è": 492,
      "##ๅ": 493,
      "##ö": 494,
      "##å": 495,
      "##๎": 496,
      "##đ": 497,
      "##๑": 498,
      "##±": 499,
      "##€": 500,
      "##‎": 501,
      "##๘": 502,
      "##ṇ": 503,
      "##ŧ": 504,
      "##Ë": 505,
      "##¹": 506,
      "##Å": 507,
      "##Ð": 508,
      "##ัน": 509,
      "##ี่": 510,
      "##่า": 511,
      "##อง": 512,
      "##้า": 513,
      "##ม่": 514,
      "##ที่": 515,
      "##ด้": 516,
      "##่อ": 517,
      "##จะ": 518,
      "##ับ": 519,
      "##ุณ": 520,
      "##าย": 521,
      "##ไม่": 522,
      "##็น": 523,
      "##ั้": 524,
      "##าก": 525,
      "##อย": 526,
      "##ได้": 527,
      "##ว่า": 528,
      "##าร": 529,
      "##เป": 530,
      "##ัง": 531,
      "##เร": 532,
      "##เธ": 533,
      "##าม": 534,
      "##ือ": 535,
      "##เข": 536,
      "##ไป": 537,
      "##้ว": 538,
      "##เป็น": 539,
      "##ู้": 540,
      "ฉัน": 541,
      "##วก": 542,
      "##ห้": 543,
      "##ของ": 544,
      "##ล้ว": 545,
      "##ี้": 546,
      "##่ง": 547,
      "##อก": 548,
      "##คุณ": 549,
      "##ละ": 550,
      "##ฉัน": 551,
      "##้อง": 552,
      "##่น": 553,
      "##ิด": 554,
      "##ั้น": 555,
      "##ให้": 556,
      "##เห": 557,
      "##เล": 558,
      "##ีย": 559,
      "##ทำ": 560,
      "##มา": 561,
      "##หน": 562,
      "##คร": 563,
      "##ไร": 564,
      "##นี้": 565,
      "##มี": 566,
      "##ู่": 567,
      "##นะ": 568,
      "##เขา": 569,
      "##อะ": 570,
      "##การ": 571,
      "##ระ": 572,
      "##แล้ว": 573,
      "##ื่อ": 574,
      "##ต้อง": 575,
      "คุณ": 576,
      "##ช่": 577,
      "##าน": 578,
      "##ัก": 579,
      "##อน": 580,
      "ไม่": 581,
      "##มัน": 582,
      "##พวก": 583,
      "##หม": 584,
      "##คน": 585,
      "##ดี": 586,
      "##วย": 587,
      "##ิน": 588,
      "##ก็": 589,
      "##รา": 590,
      "##อยู่": 591,
      "และ": 592,
      "##่ะ": 593,
      "##อะไร": 594,
      "ผม": 595,
      "##่าง": 596,
      "##คว": 597,
      "##ใน": 598,
      "##รู้": 599,
      "##หร": 600,
      "##ัว": 601,
      "##เจ": 602,
      "##นั้น": 603,
      "##้น": 604,
      "##เธอ": 605,
      "##าง": 606,
      "##กับ": 607,
      "##กล": 608,
      "##ต่": 609,
      "##เรา": 610,
      "##ร์": 611,
      "##ริ": 612,
      "##สิ": 613,
      "##ูก": 614,
      "##ื่": 615,
      "##เลย": 616,
      "##ผม": 617,
      "##อา": 618,
      "##อบ": 619,
      "##ใจ": 620,
      "##ั้ง": 621,
      "##กัน": 622,
      "##ความ": 623,
      "##ื่อง": 624,
      "##เก": 625,
      "##เค": 626,
      "มัน": 627,
      "##เด": 628,
      "##นี่": 629,
      "เธ": 630,
      "##ึง": 631,
      "แต่": 632,
      "##ลัง": 633,
      "##ั่น": 634,
      "##เพ": 635,
      "เข": 636,
      "##จาก": 637,
      "##อย่าง": 638,
      "##อร์": 639,
      "##ุก": 640,
      "##ตัว": 641,
      "##มาก": 642,
      "ที่": 643,
      "##ไม่ได้": 644,
      "##รอ": 645,
      "##รง": 646,
      "##เจ้า": 647,
      "เรา": 648,
      "##ด้วย": 649,
      "แล้ว": 650,
      "##เส": 651,
      "##ริง": 652,
      "##คิด": 653,
      "##ุด": 654,
      "##ผู้": 655,
      "##เรื่อง": 656,
      "เธอ": 657,
      "##ัด": 658,
      "##้อ": 659,
      "##ยัง": 660,
      "##เน": 661,
      "##ือน": 662,
      "##่อน": 663,
      "##หล": 664,
      "##ีก": 665,
      "##ไง": 666,
      "พวก": 667,
      "##ใช่": 668,
      "##้าง": 669,
      "##่อย": 670,
      "โอ": 671,
      "##บอก": 672,
      "##่าน": 673,
      "##ูด": 674,
      "##จริง": 675,
      "##ึ้น": 676,
      "เพ": 677,
      "เขา": 678,
      "##ถึง": 679,
      "##หา": 680,
      "##ี่ย": 681,
      "##วิ": 682,
      "##ขึ้น": 683,
      "##่ว": 684,
      "##นาย": 685,
      "##ไหม": 686,
      "##เข้า": 687,
      "##เหรอ": 688,
      "##ล่ะ": 689,
      "อย": 690,
      "##ลา": 691,
      "##เช": 692,
      "##ำลัง": 693,
      "##ออก": 694,
      "##คือ": 695,
      "##เม": 696,
      "##ประ": 697,
      "##แก": 698,
      "##อยาก": 699,
      "##เว": 700,
      "##บบ": 701,
      "##งาน": 702,
      "##ดู": 703,
      "##แค": 704,
      "##้าน": 705,
      "##ไม": 706,
      "##รร": 707,
      "##รับ": 708,
      "##อีก": 709,
      "##โท": 710,
      "##พูด": 711,
      "##พวกเขา": 712,
      "นี่": 713,
      "##ว้": 714,
      "##สิ่ง": 715,
      "##เต": 716,
      "##ล่า": 717,
      "##ึ่ง": 718,
      "ถ้า": 719,
      "##ั้ย": 720,
      "นาย": 721,
      "##ึก": 722,
      "##เท": 723,
      "เร": 724,
      "##ลอ": 725,
      "##มั้ย": 726,
      "ใช่": 727,
      "##ที": 728,
      "##็ก": 729,
      "##ทาง": 730,
      "ทำ": 731,
      "##ถูก": 732,
      "##เอง": 733,
      "##ไว้": 734,
      "##เห็น": 735,
      "##่ม": 736,
      "##และ": 737,
      "##ลง": 738,
      "##ครับ": 739,
      "เป": 740,
      "##ไหน": 741,
      "##ติ": 742,
      "##ต่อ": 743,
      "##เหม": 744,
      "##าว": 745,
      "##ัญ": 746,
      "##ต้องการ": 747,
      "##คิดว่า": 748,
      "##ืน": 749,
      "##ทั้ง": 750,
      "##เหมือน": 751,
      "##ใคร": 752,
      "##กว่า": 753,
      "มี": 754,
      "##แบบ": 755,
      "##หน้า": 756,
      "##ัย": 757,
      "##ทุก": 758,
      "##ิง": 759,
      "##หรือ": 760,
      "##แค่": 761,
      "##ราะ": 762,
      "##แน": 763,
      "##ช่วย": 764,
      "##เคย": 765,
      "##รัก": 766,
      "##้าย": 767,
      "##เอ": 768,
      "นั่น": 769,
      "##ใช": 770,
      "##าร์": 771,
      "##ลูก": 772,
      "##น่า": 773,
      "##วัน": 774,
      "##ย์": 775,
      "##ิ่ง": 776,
      "เอ": 777,
      "##เพื่อ": 778,
      "##หญ": 779,
      "##ค์": 780,
      "##ไม่มี": 781,
      "##กำลัง": 782,
      "##ตาย": 783,
      "##สุด": 784,
      "##สาม": 785,
      "เจ": 786,
      "##ที่นี่": 787,
      "##ที่จะ": 788,
      "ก็": 789,
      "##กลับ": 790,
      "##เสีย": 791,
      "ใน": 792,
      "##ตาม": 793,
      "##ทำให้": 794,
      "##พระ": 795,
      "##เรีย": 796,
      "##สำ": 797,
      "##นั่น": 798,
      "##ตอน": 799,
      "##ื่น": 800,
      "##ตร": 801,
      "เป็น": 802,
      "##ชี": 803,
      "##เบ": 804,
      "##ัล": 805,
      "ได้": 806,
      "##คง": 807,
      "##หรอก": 808,
      "##น่ะ": 809,
      "##ใช้": 810,
      "##สน": 811,
      "##เดีย": 812,
      "##โทษ": 813,
      "##ข้า": 814,
      "ไป": 815,
      "##น้": 816,
      "##รู้ว่า": 817,
      "##หมด": 818,
      "##เกิด": 819,
      "##สิ่งที่": 820,
      "##าด": 821,
      "##หน่อย": 822,
      "จะ": 823,
      "##แม่": 824,
      "##ลก": 825,
      "##ค่ะ": 826,
      "##ขอ": 827,
      "##คุ": 828,
      "##ั่ง": 829,
      "##วิต": 830,
      "##เวลา": 831,
      "##แห": 832,
      "##บ้าน": 833,
      "##ปร": 834,
      "##ารถ": 835,
      "##หมาย": 836,
      "โอ้": 837,
      "##เถ": 838,
      "เฮ": 839,
      "##เอา": 840,
      "ฉันไม่": 841,
      "ตอน": 842,
      "##ชาย": 843,
      "##หรับ": 844,
      "##อาจ": 845,
      "##กระ": 846,
      "##ท่าน": 847,
      "ฉันจะ": 848,
      "##่าย": 849,
      "##้ง": 850,
      "เพื่อ": 851,
      "##ัส": 852,
      "อะ": 853,
      "##ทรง": 854,
      "ทำไม": 855,
      "เพราะ": 856,
      "##ยังไง": 857,
      "ขอ": 858,
      "##แต่": 859,
      "##พ่อ": 860,
      "ไม่มี": 861,
      "##ของฉัน": 862,
      "##อม": 863,
      "##เย": 864,
      "##๋ย": 865,
      "##ชีวิต": 866,
      "##ครั้ง": 867,
      "ว่า": 868,
      "อะไร": 869,
      "##สามารถ": 870,
      "##หนึ่ง": 871,
      "##แน่": 872,
      "##ของคุณ": 873,
      "##อยู่ใน": 874,
      "##จำ": 875,
      "##้อม": 876,
      "##ดา": 877,
      "อย่า": 878,
      "##ภา": 879,
      "##โด": 880,
      "##ควร": 881,
      "เม": 882,
      "เอา": 883,
      "โอเค": 884,
      "##วน": 885,
      "##บาง": 886,
      "ข้า": 887,
      "##ก่อน": 888,
      "##ฆ่า": 889,
      "##ผิด": 890,
      "##ไม่ใช่": 891,
      "##ดี๋ย": 892,
      "ให้": 893,
      "คน": 894,
      "##คะ": 895,
      "##ชอบ": 896,
      "##คำ": 897,
      "เฮ้": 898,
      "##ทำอะไร": 899,
      "##กร": 900,
      "##ิล": 901,
      "##อด": 902,
      "##่าว": 903,
      "##่วน": 904,
      "##ผล": 905,
      "##ียง": 906,
      "##แต": 907,
      "หน": 908,
      "##พย": 909,
      "##เดียว": 910,
      "##เมื่อ": 911,
      "##เปล่า": 912,
      "##สอง": 913,
      "##สึก": 914,
      "##วกับ": 915,
      "##ลับ": 916,
      "##พบ": 917,
      "แม่": 918,
      "หร": 919,
      "##วง": 920,
      "##เชื่อ": 921,
      "##เง": 922,
      "##ิส": 923,
      "##ลอด": 924,
      "ขอบ": 925,
      "##เซ": 926,
      "##ืม": 927,
      "##คืน": 928,
      "##บน": 929,
      "##สม": 930,
      "##บ้าง": 931,
      "##องค์": 932,
      "##ิ่ม": 933,
      "##แก่": 934,
      "##อื่น": 935,
      "##ิต": 936,
      "##ซะ": 937,
      "พ่อ": 938,
      "##รก": 939,
      "งั้น": 940,
      "หรือ": 941,
      "ดู": 942,
      "##มน": 943,
      "##หลัง": 944,
      "##ิก": 945,
      "##ชื่อ": 946,
      "##ื้อ": 947,
      "##หว": 948,
      "##พร": 949,
      "##จะไม่": 950,
      "การ": 951,
      "##ญา": 952,
      "##แท": 953,
      "##ส์": 954,
      "##เถอะ": 955,
      "##นัก": 956,
      "##ดี๋ยว": 957,
      "##อล": 958,
      "ผู้": 959,
      "##ตุ": 960,
      "เด": 961,
      "##าก็": 962,
      "##เจอ": 963,
      "##หรอ": 964,
      "##เท่า": 965,
      "มา": 966,
      "เจ้า": 967,
      "##เด็ก": 968,
      "##ปล": 969,
      "##นา": 970,
      "พวกเขา": 971,
      "##หญิง": 972,
      "##เป็นคน": 973,
      "เก": 974,
      "##จริงๆ": 975,
      "##เหล": 976,
      "##รถ": 977,
      "##ัลลอ": 978,
      "##ทธ": 979,
      "##ัลลอฮ": 980,
      "##รึ": 981,
      "##ข้าง": 982,
      "##เลือ": 983,
      "##มือ": 984,
      "แค": 985,
      "##สง": 986,
      "##าล": 987,
      "##รรม": 988,
      "##ยุด": 989,
      "##รู้สึก": 990,
      "คว": 991,
      "##ที่สุด": 992,
      "##จะได้": 993,
      "##ตรง": 994,
      "##รว": 995,
      "##้ม": 996,
      "##ิม": 997,
      "##พวกเจ้า": 998,
      "##สำหรับ": 999,
      "ดี": 1000,
      "##เกี่ย": 1001,
      "##ยิน": 1002,
      "##หาร": 1003,
      "##ถ้า": 1004,
      "##โทร": 1005,
      "ของ": 1006,
      "##็ว": 1007,
      "##สุ": 1008,
      "##หัว": 1009,
      "เมื่อ": 1010,
      "##คุย": 1011,
      "##ัม": 1012,
      "##าส": 1013,
      "##เล่น": 1014,
      "##น้ำ": 1015,
      "##ไปแล้ว": 1016,
      "ทุก": 1017,
      "##er": 1018,
      "##เพื่อน": 1019,
      "##พอ": 1020,
      "##ร้าย": 1021,
      "##ิบ": 1022,
      "##in": 1023,
      "##บอกว่า": 1024,
      "##ตา": 1025,
      "##ณ์": 1026,
      "##จะไป": 1027,
      "##เคร": 1028,
      "ขอบคุณ": 1029,
      "##ตัวเอง": 1030,
      "##ทำงาน": 1031,
      "##หม่": 1032,
      "##บรร": 1033,
      "##ที่คุณ": 1034,
      "มันเป็น": 1035,
      "##่วย": 1036,
      "##ตั้ง": 1037,
      "##จะเป็น": 1038,
      "##ส่ง": 1039,
      "##เตอร์": 1040,
      "##จัด": 1041,
      "##เรียน": 1042,
      "##จัก": 1043,
      "##ชั้น": 1044,
      "ความ": 1045,
      "##พระองค์": 1046,
      "##ใหญ": 1047,
      "##ของเขา": 1048,
      "##ายาม": 1049,
      "##ou": 1050,
      "##เข้าใจ": 1051,
      "##อัลลอฮ": 1052,
      "##ติด": 1053,
      "##ที่ฉัน": 1054,
      "##ลี่ย": 1055,
      "##ามี": 1056,
      "##ตอนนี้": 1057,
      "##รั": 1058,
      "##หาย": 1059,
      "##ชา": 1060,
      "##้อน": 1061,
      "##ใหม่": 1062,
      "##ของเรา": 1063,
      "##อัน": 1064,
      "##ออกไป": 1065,
      "แก": 1066,
      "##ท์": 1067,
      "ลูก": 1068,
      "อา": 1069,
      "##เค้า": 1070,
      "##ต่าง": 1071,
      "##เงิน": 1072,
      "##ภาพ": 1073,
      "##ส่วน": 1074,
      "##สัก": 1075,
      "##สาว": 1076,
      "บาง": 1077,
      "##ใด": 1078,
      "##คล": 1079,
      "##ใหญ่": 1080,
      "จาก": 1081,
      "##เหตุ": 1082,
      "ตอนนี้": 1083,
      "##โม": 1084,
      "##หลาย": 1085,
      "##ั่ว": 1086,
      "##พา": 1087,
      "##่นอน": 1088,
      "##แหละ": 1089,
      "##โก": 1090,
      "##ปี": 1091,
      "##ยา": 1092,
      "##ภัย": 1093,
      "th": 1094,
      "##ห้อง": 1095,
      "##ห์": 1096,
      "##ทั้งหมด": 1097,
      "##ุ่ง": 1098,
      "กับ": 1099,
      "##ถาม": 1100,
      "##งั้น": 1101,
      "##ต์": 1102,
      "##อยู่ที่": 1103,
      "##รี": 1104,
      "ไม่ใช่": 1105,
      "##แผ": 1106,
      "##ลี่ยน": 1107,
      "##อ้": 1108,
      "##นำ": 1109,
      "ใคร": 1110,
      "##ียน": 1111,
      "##เริ่ม": 1112,
      "##รู": 1113,
      "##้จริง": 1114,
      "##ุ่ม": 1115,
      "##โปร": 1116,
      "##นี่ย": 1117,
      "##ูล": 1118,
      "พระ": 1119,
      "##แบบนี้": 1120,
      "##ชน": 1121,
      "##ของเธอ": 1122,
      "##แย": 1123,
      "ฟัง": 1124,
      "##พยายาม": 1125,
      "##เกี่ยวกับ": 1126,
      "##ไม่รู้": 1127,
      "##เธ": 1128,
      "##ทำไม": 1129,
      "เดี๋ยว": 1130,
      "##พิ": 1131,
      "##จะทำ": 1132,
      "##ดง": 1133,
      "ยัง": 1134,
      "##โลก": 1135,
      "##ือง": 1136,
      "ท่าน": 1137,
      "##an": 1138,
      "##เกิดขึ้น": 1139,
      "##เธฒ": 1140,
      "##ลาย": 1141,
      "##แล": 1142,
      "อย่าง": 1143,
      "##ิ้ง": 1144,
      "##จับ": 1145,
      "##เนี่ย": 1146,
      "##พวกเรา": 1147,
      "##เป็นผู้": 1148,
      "##แข": 1149,
      "##ให้ฉัน": 1150,
      "##น้อย": 1151,
      "##เป็นไร": 1152,
      "เค": 1153,
      "รู้": 1154,
      "เล": 1155,
      "##ให้คุณ": 1156,
      "##แป": 1157,
      "##ังนั้น": 1158,
      "##ฟัง": 1159,
      "##บ้า": 1160,
      "##เน": 1161,
      "เรื่อง": 1162,
      "##เหลือ": 1163,
      "##เดิน": 1164,
      "##ุม": 1165,
      "##ส่": 1166,
      "##จน": 1167,
      "##สู": 1168,
      "##สร": 1169,
      "##เปลี่ยน": 1170,
      "##พระเจ้า": 1171,
      "##โร": 1172,
      "##เพราะ": 1173,
      "##ได้รับ": 1174,
      "คือ": 1175,
      "##ัติ": 1176,
      "##มาย": 1177,
      "##สา": 1178,
      "ดังนั้น": 1179,
      "##ัญญา": 1180,
      "##แรก": 1181,
      "##ี่ยม": 1182,
      "แท": 1183,
      "##กลับมา": 1184,
      "##เรื่องนี้": 1185,
      "##๊ย": 1186,
      "โด": 1187,
      "##ุน": 1188,
      "##on": 1189,
      "บอก": 1190,
      "##ัต": 1191,
      "##หนู": 1192,
      "##ข้อ": 1193,
      "##ตก": 1194,
      "เอ่อ": 1195,
      "##อะไรขึ้น": 1196,
      "##็บ": 1197,
      "##คนที่": 1198,
      "##บรรดา": 1199,
      "ต้อง": 1200,
      "แน": 1201,
      "##ษา": 1202,
      "##ผ่าน": 1203,
      "ผมไม่": 1204,
      "##ลาด": 1205,
      "เหม": 1206,
      "##โปรด": 1207,
      "##อาจจะ": 1208,
      "##ว่าง": 1209,
      "##ปก": 1210,
      "##ก็ได้": 1211,
      "แค่": 1212,
      "##แต่ง": 1213,
      "##้ำ": 1214,
      "##ตำ": 1215,
      "##แห่ง": 1216,
      "เหมือน": 1217,
      "##โอ": 1218,
      "##มีความ": 1219,
      "##เร็ว": 1220,
      "##สาย": 1221,
      "##en": 1222,
      "##โรง": 1223,
      "##ู่น": 1224,
      "##เธญ": 1225,
      "##แจ": 1226,
      "##ามา": 1227,
      "##มอง": 1228,
      "##มิ": 1229,
      "##ออกมา": 1230,
      "เข้า": 1231,
      "##ว์": 1232,
      "##ตัด": 1233,
      "##่วม": 1234,
      "เราจะ": 1235,
      "##แบบนั้น": 1236,
      "##โดย": 1237,
      "##กลัว": 1238,
      "##เครื่อง": 1239,
      "ชั้น": 1240,
      "##เลือก": 1241,
      "##พี่": 1242,
      "##ากำลัง": 1243,
      "สิ่ง": 1244,
      "จริง": 1245,
      "อยู่": 1246,
      "##ปฏ": 1247,
      "##เข้าไป": 1248,
      "##แส": 1249,
      "##ทุกอย่าง": 1250,
      "##่วง": 1251,
      "##ุษ": 1252,
      "##ิว": 1253,
      "##ี้ย": 1254,
      "##ว่าคุณ": 1255,
      "##แฟ": 1256,
      "##ขน": 1257,
      "##เกิน": 1258,
      "##บางอย่าง": 1259,
      "##อยากจะ": 1260,
      "##กลง": 1261,
      "##รวจ": 1262,
      "##ใช่ไหม": 1263,
      "ขอโทษ": 1264,
      "##หวัง": 1265,
      "##ขอโทษ": 1266,
      "##ทร": 1267,
      "##กิน": 1268,
      "##ก็บ": 1269,
      "##หยุด": 1270,
      "##ปัญ": 1271,
      "##็จ": 1272,
      "##ยอม": 1273,
      "##แม": 1274,
      "##ครัว": 1275,
      "##ไฟ": 1276,
      "##พัน": 1277,
      "##บริ": 1278,
      "##ไปที่": 1279,
      "หนู": 1280,
      "##จง": 1281,
      "##เศ": 1282,
      "##ได้ยิน": 1283,
      "##ที่ดี": 1284,
      "##สาร": 1285,
      "##นาน": 1286,
      "สำ": 1287,
      "##at": 1288,
      "วัน": 1289,
      "##ทุกคน": 1290,
      "##โต": 1291,
      "##ร้อง": 1292,
      "##เหมือนกัน": 1293,
      "เห": 1294,
      "##วด": 1295,
      "##ใส่": 1296,
      "##ซ์": 1297,
      "##เสียง": 1298,
      "##ไม่เคย": 1299,
      "##ซิ": 1300,
      "##ar": 1301,
      "##จัง": 1302,
      "##สบ": 1303,
      "##ทิ้ง": 1304,
      "##ธี": 1305,
      "##ของผม": 1306,
      "##นอก": 1307,
      "##อย่างนั้น": 1308,
      "##ผู้หญิง": 1309,
      "อืม": 1310,
      "##กล่าว": 1311,
      "##ตลอด": 1312,
      "##นึง": 1313,
      "##หมายถึง": 1314,
      "##เมือง": 1315,
      "##จะต้อง": 1316,
      "##ที่เรา": 1317,
      "##็ม": 1318,
      "##หาก": 1319,
      "##าะ": 1320,
      "##ล์": 1321,
      "##ธรรม": 1322,
      "##เธ": 1323,
      "แม": 1324,
      "โดย": 1325,
      "##ด์": 1326,
      "ซึ่ง": 1327,
      "เว": 1328,
      "##อยู่กับ": 1329,
      "เราต้อง": 1330,
      "##ปล่อย": 1331,
      "##็ค": 1332,
      "บางที": 1333,
      "##ัพ": 1334,
      "##ใช่มั้ย": 1335,
      "แต่ฉัน": 1336,
      "พวกเรา": 1337,
      "##สัน": 1338,
      "##สร้าง": 1339,
      "##เพียง": 1340,
      "##ียด": 1341,
      "##ณะ": 1342,
      "##จัดการ": 1343,
      "แท้จริง": 1344,
      "##ุ่น": 1345,
      "##ไหร": 1346,
      "เกิด": 1347,
      "##ลอง": 1348,
      "##รู้จัก": 1349,
      "##รี่": 1350,
      "##นิ": 1351,
      "##เน": 1352,
      "##้อย": 1353,
      "##สัญญา": 1354,
      "##จบ": 1355,
      "##แพ": 1356,
      "##เปิด": 1357,
      "ทั้ง": 1358,
      "เช": 1359,
      "##อบครัว": 1360,
      "##ปัญหา": 1361,
      "สำหรับ": 1362,
      "##วัส": 1363,
      "ฉันคิดว่า": 1364,
      "##เธฒเธ": 1365,
      "##มอ": 1366,
      "เน": 1367,
      "##ของพวกเขา": 1368,
      "##เธ": 1369,
      "##คดี": 1370,
      "##๊ะ": 1371,
      "##มันเป็น": 1372,
      "เส": 1373,
      "##or": 1374,
      "##เพิ่ง": 1375,
      "##็ด": 1376,
      "##ตอบ": 1377,
      "##เล็ก": 1378,
      "##ียบ": 1379,
      "##สถ": 1380,
      "พระเจ้า": 1381,
      "##โย": 1382,
      "##มั": 1383,
      "##พร้อม": 1384,
      "##แผน": 1385,
      "เอาล่ะ": 1386,
      "##้วย": 1387,
      "##ค่า": 1388,
      "##รัทธ": 1389,
      "##ซี่": 1390,
      "##ิ์": 1391,
      "##มาจาก": 1392,
      "##คัญ": 1393,
      "##กา": 1394,
      "##วาง": 1395,
      "##ร่วม": 1396,
      "##สิน": 1397,
      "##ไหร่": 1398,
      "##ศรัทธ": 1399,
      "##ลิ": 1400,
      "##ไปได้": 1401,
      "##รึเปล่า": 1402,
      "##อยู่น": 1403,
      "##เก็บ": 1404,
      "##สอบ": 1405,
      "##อยู่ที่นี่": 1406,
      "##คู่": 1407,
      "##หรือเปล่า": 1408,
      "##ท้าย": 1409,
      "##ราย": 1410,
      "##พวกเข": 1411,
      "##แรง": 1412,
      "##ดิน": 1413,
      "ช่วย": 1414,
      "ฉันก็": 1415,
      "##ing": 1416,
      "##ที่ย": 1417,
      "##เธอก": 1418,
      "##เรียก": 1419,
      "##กล้": 1420,
      "และฉัน": 1421,
      "ผมจะ": 1422,
      "##สำคัญ": 1423,
      "##หนัง": 1424,
      "ปี": 1425,
      "##าบ": 1426,
      "##ทำได้": 1427,
      "##หก": 1428,
      "ถึง": 1429,
      "ระ": 1430,
      "##ที่ผม": 1431,
      "##es": 1432,
      "##กำ": 1433,
      "แน่นอน": 1434,
      "ไอ้": 1435,
      "##ดีกว่า": 1436,
      "##สนใจ": 1437,
      "##เลยนะ": 1438,
      "ฟังนะ": 1439,
      "##อัลลอฮ์": 1440,
      "##00": 1441,
      "##บรรดาผู้": 1442,
      "##จะมี": 1443,
      "##ตู": 1444,
      "อาจ": 1445,
      "you": 1446,
      "##เข้ามา": 1447,
      "##แน่ใจ": 1448,
      "##ไล": 1449,
      "##หนี": 1450,
      "##ลอดภัย": 1451,
      "เย": 1452,
      "##ว่าฉัน": 1453,
      "##็ง": 1454,
      "##เท่านั้น": 1455,
      "##ต่อไป": 1456,
      "ไม่ได้": 1457,
      "##ื้น": 1458,
      "คุณจะ": 1459,
      "##้าว": 1460,
      "##ต้น": 1461,
      "##แสดง": 1462,
      "ประ": 1463,
      "##วัง": 1464,
      "##เธฑ": 1465,
      "##เผ": 1466,
      "หยุด": 1467,
      "##ุษย์": 1468,
      "##ศรัทธา": 1469,
      "ด้วย": 1470,
      "##เช่น": 1471,
      "##ื่ม": 1472,
      "##ิจ": 1473,
      "เพื่อน": 1474,
      "##สี": 1475,
      "##ุง": 1476,
      "##พวกท่าน": 1477,
      "ออก": 1478,
      "##คนอื่น": 1479,
      "##ิญ": 1480,
      "##สะ": 1481,
      "##าน่า": 1482,
      "##อาหาร": 1483,
      "##พัก": 1484,
      "แล้วก็": 1485,
      "##่อง": 1486,
      "##ได้ไหม": 1487,
      "##กับฉัน": 1488,
      "ได้โปรด": 1489,
      "จน": 1490,
      "ไม่เป็นไร": 1491,
      "##ปลอดภัย": 1492,
      "##สั่ง": 1493,
      "##อยากให้": 1494,
      "##ซัก": 1495,
      "##ll": 1496,
      "##ครอบครัว": 1497,
      "##หน้าที่": 1498,
      "##บร": 1499,
      "##ข่าว": 1500,
      "##เลือด": 1501,
      "##ีน": 1502,
      "##ว่ามัน": 1503,
      "##เธญเธ": 1504,
      "##นอน": 1505,
      "the": 1506,
      "พี่": 1507,
      "##วม": 1508,
      "##เหล่า": 1509,
      "##ปิด": 1510,
      "##มากกว่า": 1511,
      "##เจ็บ": 1512,
      "##โน": 1513,
      "##สุข": 1514,
      "น่า": 1515,
      "##ออกจาก": 1516,
      "##ชั่ว": 1517,
      "##มั๊ย": 1518,
      "##ียม": 1519,
      "##เย็น": 1520,
      "##หว่าง": 1521,
      "##สวย": 1522,
      "คร": 1523,
      "นี่มัน": 1524,
      "##สัย": 1525,
      "##สู้": 1526,
      "ถูก": 1527,
      "##ใกล้": 1528,
      "##ุบ": 1529,
      "##โดน": 1530,
      "##เฉ": 1531,
      "หลัง": 1532,
      "##แย่": 1533,
      "##แทน": 1534,
      "ถ้าคุณ": 1535,
      "คิด": 1536,
      "ก่อน": 1537,
      "##เกล": 1538,
      "##ยิ่ง": 1539,
      "##ปาก": 1540,
      "##คุยกับ": 1541,
      "เท": 1542,
      "เด็ก": 1543,
      "##เนเธ": 1544,
      "##เฟ": 1545,
      "ไม่ต้อง": 1546,
      "##ได้แล้ว": 1547,
      "##ยาก": 1548,
      "##เธ": 1549,
      "##นน": 1550,
      "##อาย": 1551,
      "##้อมูล": 1552,
      "##พวกนี้": 1553,
      "##กี้": 1554,
      "##พวกนั้น": 1555,
      "##รอย": 1556,
      "##ิเส": 1557,
      "นี่คือ": 1558,
      "##ตำรวจ": 1559,
      "##คา": 1560,
      "##ราบ": 1561,
      "##ิเสธ": 1562,
      "##อัลลอฮฺ": 1563,
      "##ยิง": 1564,
      "##ตี": 1565,
      "##ฐาน": 1566,
      "##กลับไป": 1567,
      "อะไรนะ": 1568,
      "##รอบ": 1569,
      "##ที่มี": 1570,
      "##รูป": 1571,
      "##ควรจะ": 1572,
      "##อย่า": 1573,
      "##สุดท้าย": 1574,
      "##ายัง": 1575,
      "##ตัน": 1576,
      "##เหน": 1577,
      "##เธเธ": 1578,
      "คุณไม่": 1579,
      "อีก": 1580,
      "##ที่เธอ": 1581,
      "เกิดอะไรขึ้น": 1582,
      "##ป้อง": 1583,
      "##ขนาด": 1584,
      "##ปืน": 1585,
      "ฉันไม่ได้": 1586,
      "##วจ": 1587,
      "##ด้วยกัน": 1588,
      "แต": 1589,
      "##ต้องทำ": 1590,
      "##เศษ": 1591,
      "##ต้": 1592,
      "##ฟ้า": 1593,
      "##ลืม": 1594,
      "##โล": 1595,
      "##ไข": 1596,
      "เห็น": 1597,
      "##วัสดี": 1598,
      "##คนเดียว": 1599,
      "##me": 1600,
      "##เราได้": 1601,
      "##ทาน": 1602,
      "##าการ": 1603,
      "##ารู้": 1604,
      "##ผู้ชาย": 1605,
      "##ไอ": 1606,
      "##น์": 1607,
      "##ขว": 1608,
      "##วล": 1609,
      "##รม": 1610,
      "##เลิก": 1611,
      "##จำเป็น": 1612,
      "เบ": 1613,
      "##เดี๋ยว": 1614,
      "คุณรู้": 1615,
      "##ที่เขา": 1616,
      "##ดับ": 1617,
      "สวัสดี": 1618,
      "##ตรวจ": 1619,
      "##กลาง": 1620,
      "##โมง": 1621,
      "เธอก": 1622,
      "##ค่อย": 1623,
      "##อย่างไร": 1624,
      "##ประตู": 1625,
      "##อยัง": 1626,
      "หล": 1627,
      "##ขึ้นมา": 1628,
      "##เหตุผล": 1629,
      "##ชัด": 1630,
      "##ืบ": 1631,
      "##ปฏิเสธ": 1632,
      "##แปลก": 1633,
      "ครับ": 1634,
      "##ได้ยังไง": 1635,
      "##ว่าเธอ": 1636,
      "##เถิด": 1637,
      "##ถือ": 1638,
      "##แน่นอน": 1639,
      "##บิน": 1640,
      "เร็ว": 1641,
      "เค้า": 1642,
      "##ยะ": 1643,
      "##วะ": 1644,
      "##ดน": 1645,
      "##โช": 1646,
      "##สถาน": 1647,
      "##มนุษย์": 1648,
      "##พันธ": 1649,
      "##ในการ": 1650,
      "##แมน": 1651,
      "##การณ์": 1652,
      "พวกเข": 1653,
      "##ก็ตาม": 1654,
      "##ลี่": 1655,
      "##ขาย": 1656,
      "##เต้น": 1657,
      "##เราจะ": 1658,
      "##อกาส": 1659,
      "##เสียใจ": 1660,
      "##ความจริง": 1661,
      "ฉันต้อง": 1662,
      "##เขียน": 1663,
      "##ง่าย": 1664,
      "##หมู่": 1665,
      "พูด": 1666,
      "##วันนี้": 1667,
      "##ักษ": 1668,
      "##สงสัย": 1669,
      "##ว่าเขา": 1670,
      "##แต่งงาน": 1671,
      "##ชนะ": 1672,
      "อยาก": 1673,
      "##ข้อมูล": 1674,
      "##ดื่ม": 1675,
      "##it": 1676,
      "##ตะ": 1677,
      "##ิร์": 1678,
      "หลังจาก": 1679,
      "มันไม่": 1680,
      "##มั่น": 1681,
      "##ศัพ": 1682,
      "##ี้ยง": 1683,
      "##FF": 1684,
      "##ทั้งหลาย": 1685,
      "##ซื้อ": 1686,
      "##เสมอ": 1687,
      "##เยี่ยม": 1688,
      "##ียร์": 1689,
      "##วกัน": 1690,
      "##ศัพท์": 1691,
      "พอ": 1692,
      "##กับคุณ": 1693,
      "ที่จะ": 1694,
      "##is": 1695,
      "##พวกมัน": 1696,
      "##โกหก": 1697,
      "##ความว่า": 1698,
      "##ขอบ": 1699,
      "##พลาด": 1700,
      "##ไม้": 1701,
      "##มาก่อน": 1702,
      "##อีกครั้ง": 1703,
      "ฉันรู้": 1704,
      "##อกัน": 1705,
      "##มาที่นี่": 1706,
      "จง": 1707,
      "##าที": 1708,
      "กลับ": 1709,
      "##นั่ง": 1710,
      "##ให้ผม": 1711,
      "##จุด": 1712,
      "##มาแล้ว": 1713,
      "กำลัง": 1714,
      "##นิด": 1715,
      "##ตัดสิน": 1716,
      "##ขับ": 1717,
      "##าศ": 1718,
      "##ลำ": 1719,
      "##แก้": 1720,
      "##re": 1721,
      "##ันท": 1722,
      "##เวล": 1723,
      "คง": 1724,
      "##ใต้": 1725,
      "##ทะ": 1726,
      "##ของนาย": 1727,
      "ทุกคน": 1728,
      "##ตี้": 1729,
      "##อยู่ไหน": 1730,
      "##สู่": 1731,
      "##ด้าน": 1732,
      "##คุม": 1733,
      "##ได้มั้ย": 1734,
      "##เช้า": 1735,
      "##ห่วง": 1736,
      "##ยังไม่": 1737,
      "##เกินไป": 1738,
      "นั่นคือ": 1739,
      "##ช่วง": 1740,
      "##เดิม": 1741,
      "##เล่า": 1742,
      "##น้อง": 1743,
      "##เพลง": 1744,
      "##เต็ม": 1745,
      "##สบาย": 1746,
      "##บุ": 1747,
      "##สัต": 1748,
      "##ง่": 1749,
      "##็อ": 1750,
      "##สูง": 1751,
      "ตกลง": 1752,
      "##สองคน": 1753,
      "##ล่าว": 1754,
      "##แบ": 1755,
      "##ให้เธอ": 1756,
      "##เรือ": 1757,
      "##โอกาส": 1758,
      "##ศพ": 1759,
      "##ิตย์": 1760,
      "##เป็นใคร": 1761,
      "มีอะไร": 1762,
      "##แตก": 1763,
      "##ฉันจะ": 1764,
      "##ว่าจะ": 1765,
      "##ดำ": 1766,
      "##ทธิ์": 1767,
      "##อำ": 1768,
      "to": 1769,
      "##บัง": 1770,
      "##ามัน": 1771,
      "##แล้วนะ": 1772,
      "คุณต้อง": 1773,
      "##เยอะ": 1774,
      "มันก็": 1775,
      "##โจ": 1776,
      "##ทิตย์": 1777,
      "##ชาติ": 1778,
      "##แข็ง": 1779,
      "ตาม": 1780,
      "ตั้ง": 1781,
      "##ดี้": 1782,
      "##้าม": 1783,
      "##หลัก": 1784,
      "##ดูแล": 1785,
      "##สัม": 1786,
      "##เลว": 1787,
      "##นาง": 1788,
      "##แค่ไหน": 1789,
      "##เลี้ยง": 1790,
      "##วิธี": 1791,
      "##ใบ": 1792,
      "##ัป": 1793,
      "##านี่": 1794,
      "##๊ก": 1795,
      "ฉันมี": 1796,
      "##ให้เขา": 1797,
      "##ิค": 1798,
      "##ซี": 1799,
      "##สืบ": 1800,
      "##สนุก": 1801,
      "##จิต": 1802,
      "##ทำลาย": 1803,
      "##อ่าน": 1804,
      "พร": 1805,
      "ฉันรู้ว่า": 1806,
      "##ไม่สามารถ": 1807,
      "ที่รัก": 1808,
      "##ธิบ": 1809,
      "##หนัก": 1810,
      "ปล": 1811,
      "##ของเจ้า": 1812,
      "##พูดถึง": 1813,
      "##นึก": 1814,
      "##nd": 1815,
      "ดูเหมือน": 1816,
      "##ี่ยง": 1817,
      "##ที่ไหน": 1818,
      "##กำลังจะ": 1819,
      "##ทัน": 1820,
      "##พล": 1821,
      "##น่าจะ": 1822,
      "##อส": 1823,
      "ทาง": 1824,
      "##สวน": 1825,
      "หาก": 1826,
      "##สือ": 1827,
      "##ไอ้": 1828,
      "##ศา": 1829,
      "##ชิ": 1830,
      "##จ่าย": 1831,
      "##เท้า": 1832,
      "##ุ่งนี้": 1833,
      "##พื้น": 1834,
      "##ยุ": 1835,
      "##โค": 1836,
      "##กุ": 1837,
      "##จู": 1838,
      "##ื่อน": 1839,
      "##ตร์": 1840,
      "##เราก็": 1841,
      "ผมคิดว่า": 1842,
      "##ฆา": 1843,
      "##อยู่แล้ว": 1844,
      "แต่ผม": 1845,
      "##ินดี": 1846,
      "นี่เป็น": 1847,
      "##มันก็": 1848,
      "##ัท": 1849,
      "คุณก็": 1850,
      "##คืนนี้": 1851,
      "##ow": 1852,
      "##เตือน": 1853,
      "##ฝัน": 1854,
      "##เก่า": 1855,
      "##ร้าน": 1856,
      "เรามี": 1857,
      "##โทรศัพท์": 1858,
      "##สัง": 1859,
      "##เหย": 1860,
      "##รักษา": 1861,
      "##ช่วยเหลือ": 1862,
      "แบบ": 1863,
      "##ตื่น": 1864,
      "ผมก็": 1865,
      "##หล่ะ": 1866,
      "##as": 1867,
      "##บางคน": 1868,
      "##ตรงนี้": 1869,
      "##ลี": 1870,
      "##ed": 1871,
      "##เนเธ": 1872,
      "##เกอร์": 1873,
      "##เธต": 1874,
      "##ัตร": 1875,
      "##ระหว่าง": 1876,
      "ตัว": 1877,
      "##่อม": 1878,
      "##กลุ่ม": 1879,
      "##เกลียด": 1880,
      "ไม": 1881,
      "กระ": 1882,
      "##มีอะไร": 1883,
      "##หรือไม่": 1884,
      "##แม้": 1885,
      "##ชุด": 1886,
      "หม": 1887,
      "##แนะ": 1888,
      "##กลาย": 1889,
      "เซ": 1890,
      "##ที่ได้": 1891,
      "##หย": 1892,
      "##อยู่ที่ไหน": 1893,
      "ไม่มีอะไร": 1894,
      "##ค้น": 1895,
      "นอก": 1896,
      "##รอง": 1897,
      "##et": 1898,
      "##วิท": 1899,
      "##ีย์": 1900,
      "##ดูเหมือน": 1901,
      "##เทศ": 1902,
      "พวกมัน": 1903,
      "##โซ": 1904,
      "##ไปไหน": 1905,
      "##คนนี้": 1906,
      "เยี่ยม": 1907,
      "##เดือน": 1908,
      "##คอย": 1909,
      "##แฟน": 1910,
      "ไม่มีใคร": 1911,
      "ทุกอย่าง": 1912,
      "จริงๆ": 1913,
      "##ผ้า": 1914,
      "มาก": 1915,
      "##ระเบ": 1916,
      "##ยก": 1917,
      "##อีกแล้ว": 1918,
      "##โอเค": 1919,
      "##นะคะ": 1920,
      "นัก": 1921,
      "โท": 1922,
      "##พลัง": 1923,
      "##ไกล": 1924,
      "##ซึ่ง": 1925,
      "##มีชีวิต": 1926,
      "ฉันต้องการ": 1927,
      "##ัค": 1928,
      "##โง่": 1929,
      "เข้าใจ": 1930,
      "##เคล": 1931,
      "##ตรี": 1932,
      "ใช": 1933,
      "##หมา": 1934,
      "##รอด": 1935,
      "##วัด": 1936,
      "##อี": 1937,
      "##บา": 1938,
      "##แผ่น": 1939,
      "ยินดี": 1940,
      "##เฮ": 1941,
      "##เสร": 1942,
      "##เที่ย": 1943,
      "##เนเธ": 1944,
      "##มัด": 1945,
      "##ขาด": 1946,
      "ฉันแค่": 1947,
      "##มาร": 1948,
      "##ุป": 1949,
      "##เสร็จ": 1950,
      "##ชม": 1951,
      "เขาเป็น": 1952,
      "##คุยกัน": 1953,
      "##กับเธอ": 1954,
      "มันจะ": 1955,
      "##ยืน": 1956,
      "##ไปเลย": 1957,
      "หัว": 1958,
      "##ot": 1959,
      "##ไม่ต้อง": 1960,
      "##ซม": 1961,
      "##โรงเรียน": 1962,
      "##ตน": 1963,
      "##แท้จริง": 1964,
      "##โมย": 1965,
      "##มี่": 1966,
      "##จึง": 1967,
      "##คนนั้น": 1968,
      "##พูดว่า": 1969,
      "##วี": 1970,
      "จำ": 1971,
      "##นะครับ": 1972,
      "##จะมา": 1973,
      "แล้วคุณ": 1974,
      "##แจ้ง": 1975,
      "ที": 1976,
      "##าค": 1977,
      "ฉันขอโทษ": 1978,
      "##้ย": 1979,
      "##เดียวกัน": 1980,
      "##ทราบ": 1981,
      "คำ": 1982,
      "ฉันอยาก": 1983,
      "##คิดถึง": 1984,
      "ปล่อย": 1985,
      "##มากเลย": 1986,
      "##ตกลง": 1987,
      "##ไปด้วย": 1988,
      "##เธ": 1989,
      "##ent": 1990,
      "##เพิ่ม": 1991,
      "สิ่งที่": 1992,
      "##le": 1993,
      "##แฮ": 1994,
      "##ตราย": 1995,
      "##ื่อย": 1996,
      "##เสื้อ": 1997,
      "##อายุ": 1998,
      "##กาย": 1999,
      "##ไม่อยาก": 2000,
      "แต่คุณ": 2001,
      "##เหนือ": 2002,
      "##ลงโทษ": 2003,
      "##ay": 2004,
      "##บอกคุณ": 2005,
      "##เจน": 2006,
      "##ือบ": 2007,
      "##อย่างนี้": 2008,
      "ส่วน": 2009,
      "##วรร": 2010,
      "##หลังจาก": 2011,
      "##เกิดอะไรขึ้น": 2012,
      "##ck": 2013,
      "##กระทำ": 2014,
      "##ร้อน": 2015,
      "##ีบ": 2016,
      "##เท่าไหร่": 2017,
      "##โบ": 2018,
      "##คุก": 2019,
      "นั้น": 2020,
      "เปล่า": 2021,
      "##ังวล": 2022,
      "##ปกติ": 2023,
      "##เดี๋ยวนี้": 2024,
      "รอ": 2025,
      "##๋า": 2026,
      "##ทน": 2027,
      "##อาทิตย์": 2028,
      "##ืด": 2029,
      "นั่นมัน": 2030,
      "##ิบัติ": 2031,
      "นั่นเป็น": 2032,
      "เกี่ย": 2033,
      "หมาย": 2034,
      "##ลงไป": 2035,
      "##หนังสือ": 2036,
      "##เบอร์": 2037,
      "##ปกป้อง": 2038,
      "##แถ": 2039,
      "##ที่แล้ว": 2040,
      "วิ": 2041,
      "##พวกคุณ": 2042,
      "##เธอก็": 2043,
      "##ทั้งสอง": 2044,
      "##บคุม": 2045,
      "##ทำร้าย": 2046,
      "##งั้นเหรอ": 2047,
      "##พูดอะไร": 2048,
      "##คอ": 2049,
      "##ครอง": 2050,
      "##กลับบ้าน": 2051,
      "##สอน": 2052,
      "##บอกฉัน": 2053,
      "##ที่ถูก": 2054,
      "##ความผิด": 2055,
      "##ตามหา": 2056,
      "##วุ": 2057,
      "##หัวใจ": 2058,
      "##แอ": 2059,
      "##เตร": 2060,
      "##ร่าง": 2061,
      "มันคือ": 2062,
      "##เกี่ยว": 2063,
      "##เขาก็": 2064,
      "##หมายความว่า": 2065,
      "##ยาย": 2066,
      "##ลิน": 2067,
      "##ภู": 2068,
      "##ขโมย": 2069,
      "##ียว": 2070,
      "##หายไป": 2071,
      "##ธิบาย": 2072,
      "##อภัย": 2073,
      "##ทด": 2074,
      "นอกจาก": 2075,
      "##ยอด": 2076,
      "แต่น": 2077,
      "##ธาน": 2078,
      "##แนะนำ": 2079,
      "##เป็นอะไร": 2080,
      "คนที่": 2081,
      "##ูน": 2082,
      "##สัตว์": 2083,
      "##ไพ": 2084,
      "##ช่าง": 2085,
      "##บท": 2086,
      "##กี่": 2087,
      "##ไหว": 2088,
      "##พิเศษ": 2089,
      "ครั้ง": 2090,
      "##เรื่องอะไร": 2091,
      "ทำให้": 2092,
      "##อยู่ข้าง": 2093,
      "##ทีม": 2094,
      "##วิน": 2095,
      "##แน่ๆ": 2096,
      "##al": 2097,
      "##ขณะ": 2098,
      "เคร": 2099,
      "##ดาว": 2100,
      "ทำไมคุณ": 2101,
      "ต่อ": 2102,
      "##ฃเธ": 2103,
      "ใช้": 2104,
      "##มาะ": 2105,
      "หวัด": 2106,
      "##บี้": 2107,
      "##โทรหา": 2108,
      "##ของข้า": 2109,
      "##ย้าย": 2110,
      "##ตั": 2111,
      "##หมอ": 2112,
      "##กับเขา": 2113,
      "แม้": 2114,
      "##เจอกัน": 2115,
      "หา": 2116,
      "##ซ่า": 2117,
      "##ดัง": 2118,
      "หวัดดี": 2119,
      "ที่นี่": 2120,
      "##กอง": 2121,
      "##ระเบิด": 2122,
      "##พันธ์": 2123,
      "##ซา": 2124,
      "##ค้า": 2125,
      "##บู": 2126,
      "##ถ่าย": 2127,
      "##อันตราย": 2128,
      "เกี่ยวกับ": 2129,
      "##อห์": 2130,
      "ไง": 2131,
      "เวลา": 2132,
      "##สิ้น": 2133,
      "##พยาบ": 2134,
      "##ภาย": 2135,
      "##ขอบคุณ": 2136,
      "เสียง": 2137,
      "ใช่ไหม": 2138,
      "##ลึก": 2139,
      "##กังวล": 2140,
      "##ผู้ที่": 2141,
      "##ไม่มีอะไร": 2142,
      "อัน": 2143,
      "##ไปหา": 2144,
      "##แล้วล่ะ": 2145,
      "##่ำ": 2146,
      "##เหยื่อ": 2147,
      "##ที่นั่น": 2148,
      "เรากำลัง": 2149,
      "คุณมี": 2150,
      "คุณคิดว่า": 2151,
      "##ก็คือ": 2152,
      "##เดินทาง": 2153,
      "##เวอร์": 2154,
      "##นาจ": 2155,
      "และผม": 2156,
      "##ศาส": 2157,
      "คืน": 2158,
      "นี้": 2159,
      "##วก่อน": 2160,
      "##ฉันก็": 2161,
      "Th": 2162,
      "##อห์น": 2163,
      "##us": 2164,
      "##ว่าผม": 2165,
      "##พยาบาล": 2166,
      "ไม่รู้": 2167,
      "##สติ": 2168,
      "##อยู่นี่": 2169,
      "##ันทึก": 2170,
      "แจ": 2171,
      "##ๆๆ": 2172,
      "ผมไม่ได้": 2173,
      "##ทั่ว": 2174,
      "##ควบคุม": 2175,
      "##วา": 2176,
      "##กับผม": 2177,
      "##็ต": 2178,
      "##ความคิด": 2179,
      "##วิ่ง": 2180,
      "##คงไม่": 2181,
      "##ไปจาก": 2182,
      "##จำเป็นต้อง": 2183,
      "##ถนน": 2184,
      "ตรง": 2185,
      "##สัญญาณ": 2186,
      "##ut": 2187,
      "##ช้า": 2188,
      "##เกม": 2189,
      "##อยู่บน": 2190,
      "##เกีย": 2191,
      "##ท่า": 2192,
      "##รรยา": 2193,
      "##ดิ": 2194,
      "##อ่อน": 2195,
      "งาน": 2196,
      "##เลข": 2197,
      "##อร": 2198,
      "แต่มัน": 2199,
      "##ยุ่ง": 2200,
      "##คำถาม": 2201,
      "เง": 2202,
      "##เส้น": 2203,
      "##ทำให้ฉัน": 2204,
      "ขอบใจ": 2205,
      "ทั้งหมด": 2206,
      "##ุย": 2207,
      "##ปวด": 2208,
      "##ตัดสินใจ": 2209,
      "กล": 2210,
      "##มาณ": 2211,
      "##ve": 2212,
      "##ig": 2213,
      "10": 2214,
      "##ท้อง": 2215,
      "##ป่า": 2216,
      "##ไม่มีทาง": 2217,
      "##ซ้ำ": 2218,
      "##ข้อความ": 2219,
      "##ของมัน": 2220,
      "##เธง": 2221,
      "##หลง": 2222,
      "##ญาณ": 2223,
      "##แผ่นดิน": 2224,
      "##เอาไว้": 2225,
      "##ซ่อน": 2226,
      "##เหมาะ": 2227,
      "##ไม่ดี": 2228,
      "##โกร": 2229,
      "##ไร้": 2230,
      "##เสน": 2231,
      "##่อยาก": 2232,
      "##ตั้งแต่": 2233,
      "ยังไง": 2234,
      "ฉันกำลัง": 2235,
      "##เรื่องนั้น": 2236,
      "วันนี้": 2237,
      "##หลับ": 2238,
      "##ขัด": 2239,
      "##จ๊ะ": 2240,
      "##ษัท": 2241,
      "##จะถูก": 2242,
      "##เลอร์": 2243,
      "##เก่ง": 2244,
      "##๋ง": 2245,
      "ฉันเป็น": 2246,
      "##พรุ่งนี้": 2247,
      "ว่าไง": 2248,
      "##ห่าง": 2249,
      "ค่ะ": 2250,
      "##เซอร์": 2251,
      "##ล่าวว่า": 2252,
      "##พ้น": 2253,
      "##ที่พวกเขา": 2254,
      "และคุณ": 2255,
      "##เหล่านั้น": 2256,
      "ใจ": 2257,
      "##คุ้ม": 2258,
      "##ได": 2259,
      "##รบ": 2260,
      "##คนหนึ่ง": 2261,
      "##อธิบาย": 2262,
      "ถ้าฉัน": 2263,
      "##เตรียม": 2264,
      "##หล่อน": 2265,
      "อ่า": 2266,
      "##ือยัง": 2267,
      "##าร์ตี้": 2268,
      "เธอจะ": 2269,
      "##ะต": 2270,
      "ฉันว่า": 2271,
      "##หรอกนะ": 2272,
      "##ไว": 2273,
      "##ึด": 2274,
      "พร้อม": 2275,
      "ส่ง": 2276,
      "เดี๋ย": 2277,
      "##ธุ": 2278,
      "##กลายเป็น": 2279,
      "รับ": 2280,
      "##เอก": 2281,
      "คุณกำลัง": 2282,
      "##พวกเธอ": 2283,
      "##ได้เลย": 2284,
      "##วาน": 2285,
      "##มากๆ": 2286,
      "##ไม่มีใคร": 2287,
      "ลอง": 2288,
      "##มีความสุข": 2289,
      "ว้าว": 2290,
      "##แข่ง": 2291,
      "##พูดถูก": 2292,
      "##มม": 2293,
      "##om": 2294,
      "##ระบบ": 2295,
      "##มันได้": 2296,
      "##ชีพ": 2297,
      "เปิด": 2298,
      "##รำ": 2299,
      "##สูญ": 2300,
      "##ศาสตร์": 2301,
      "##หัส": 2302,
      "on": 2303,
      "แฟ": 2304,
      "##เรามี": 2305,
      "เขาจะ": 2306,
      "##ในสิ่งที่": 2307,
      "in": 2308,
      "##ดอก": 2309,
      "##ก็จะ": 2310,
      "##รีบ": 2311,
      "มันไม่ใช่": 2312,
      "##ไซ": 2313,
      "##เร็จ": 2314,
      "ไม่เอ": 2315,
      "##ติดต่อ": 2316,
      "อี": 2317,
      "##ขี้": 2318,
      "##ประโย": 2319,
      "ก็ได้": 2320,
      "##กระท": 2321,
      "##ดีนะ": 2322,
      "##แลน": 2323,
      "##ก่อ": 2324,
      "##หลาด": 2325,
      "##ทะเล": 2326,
      "##ต้องไป": 2327,
      "##ต่างหาก": 2328,
      "##ิ่น": 2329,
      "##กันเถอะ": 2330,
      "##ปฏิบัติ": 2331,
      "##โกรธ": 2332,
      "##ที่นาย": 2333,
      "##เป็นไง": 2334,
      "##สินะ": 2335,
      "ไม่นะ": 2336,
      "##สาบ": 2337,
      "##เธก": 2338,
      "##อาวุ": 2339,
      "##คงจะ": 2340,
      "##เภ": 2341,
      "##ic": 2342,
      "##ากลับ": 2343,
      "##คาร": 2344,
      "of": 2345,
      "##บี": 2346,
      "ตั้งแต่": 2347,
      "ชื่อ": 2348,
      "##าร์ค": 2349,
      "##แหน": 2350,
      "##พัง": 2351,
      "##ทหาร": 2352,
      "##กิจ": 2353,
      "##หรือยัง": 2354,
      "##รวม": 2355,
      "##แก่พวกเขา": 2356,
      "##ากาศ": 2357,
      "เธอไม่": 2358,
      "##ดูก": 2359,
      "##หนุ่ม": 2360,
      "##ดีๆ": 2361,
      "##ที่น่า": 2362,
      "##นต์": 2363,
      "##ดิ์": 2364,
      "##หลักฐาน": 2365,
      "##ซู": 2366,
      "##เดอร์": 2367,
      "##ต่อสู้": 2368,
      "##ามาก": 2369,
      "ฉันทำ": 2370,
      "โทษ": 2371,
      "บ้า": 2372,
      "##หู": 2373,
      "##ิท": 2374,
      "##เธฑเธ": 2375,
      "นะ": 2376,
      "##วรรค์": 2377,
      "##ลูกสาว": 2378,
      "##ชน์": 2379,
      "##อฟ": 2380,
      "##ทั้งนั้น": 2381,
      "เธอเป็น": 2382,
      "##ศาจ": 2383,
      "##อำนาจ": 2384,
      "##อิส": 2385,
      "เราได้": 2386,
      "โช": 2387,
      "##มันจะ": 2388,
      "ไม่เอาน่า": 2389,
      "##านะ": 2390,
      "##แกน": 2391,
      "##สำเร็จ": 2392,
      "##เหมือนกับ": 2393,
      "it": 2394,
      "##ad": 2395,
      "##เป็นการ": 2396,
      "##คราม": 2397,
      "##ารม": 2398,
      "##จะได้รับ": 2399,
      "##แพ้": 2400,
      "ฉันหมายถึง": 2401,
      "ใช่มั้ย": 2402,
      "##ดาห์": 2403,
      "##รัฐ": 2404,
      "##กรรม": 2405,
      "##ลูกชาย": 2406,
      "##ไล่": 2407,
      "##มั่นใจ": 2408,
      "มอง": 2409,
      "รา": 2410,
      "##จาร": 2411,
      "##ต้อน": 2412,
      "เริ": 2413,
      "##แสง": 2414,
      "เชื่อ": 2415,
      "##เข้าไปใน": 2416,
      "เพราะว่า": 2417,
      "##จด": 2418,
      "##แด": 2419,
      "##ที่เป็น": 2420,
      "พวกคุณ": 2421,
      "จนกว่า": 2422,
      "##แปลง": 2423,
      "โร": 2424,
      "##รุณ": 2425,
      "##ัปดาห์": 2426,
      "##สุน": 2427,
      "##กล่าวว่า": 2428,
      "##ให้ได้": 2429,
      "##็อค": 2430,
      "##ยาน": 2431,
      "##อร์ด": 2432,
      "แฮ": 2433,
      "##ราว": 2434,
      "##มากมาย": 2435,
      "##บัญ": 2436,
      "ชี": 2437,
      "ช่าง": 2438,
      "##ให้เรา": 2439,
      "##ครึ่ง": 2440,
      "เริ่ม": 2441,
      "##ิศ": 2442,
      "ผู้หญิง": 2443,
      "##อาวุธ": 2444,
      "##แหน่ง": 2445,
      "##ชั่วโมง": 2446,
      "##ได้ไง": 2447,
      "ฉันไม่รู้": 2448,
      "##โรค": 2449,
      "##ประโยชน์": 2450,
      "##มีคน": 2451,
      "##เหล่านี้": 2452,
      "##ประหลาด": 2453,
      "เราก็": 2454,
      "##กล้า": 2455,
      "##ประเทศ": 2456,
      "##กะ": 2457,
      "##ณา": 2458,
      "##ดีขึ้น": 2459,
      "แต่ว่า": 2460,
      "##หนด": 2461,
      "##ร้า": 2462,
      "##สัมพันธ์": 2463,
      "##เมริ": 2464,
      "##ข้าม": 2465,
      "##ารมณ์": 2466,
      "ยก": 2467,
      "##ชาว": 2468,
      "##สวรรค์": 2469,
      "##แดน": 2470,
      "##ตรงนั้น": 2471,
      "คุณเป็น": 2472,
      "มานี่": 2473,
      "##้ะ": 2474,
      "นาที": 2475,
      "##ld": 2476,
      "ถ้าเธอ": 2477,
      "มิ": 2478,
      "##มีการ": 2479,
      "##ทธิ": 2480,
      "##แถว": 2481,
      "##ฮะ": 2482,
      "##นรก": 2483,
      "แต่ถ้า": 2484,
      "เธอก็": 2485,
      "##ดวง": 2486,
      "แอน": 2487,
      "##ครั้งแรก": 2488,
      "เครื่อง": 2489,
      "##เป๋า": 2490,
      "##ี่ยว": 2491,
      "##ของพระองค์": 2492,
      "##ทย์": 2493,
      "##าร่า": 2494,
      "##คืออะไร": 2495,
      "บรร": 2496,
      "##ไม่เห็น": 2497,
      "##ไพร์": 2498,
      "##อต": 2499,
      "##ีด": 2500,
      "##แยก": 2501,
      "สอง": 2502,
      "##ผ่านมา": 2503,
      "โปร": 2504,
      "##หลอก": 2505,
      "##บันทึก": 2506,
      "##ตลก": 2507,
      "##เพศ": 2508,
      "##มาถึง": 2509,
      "##ด้วยนะ": 2510,
      "ผมอยาก": 2511,
      "##ใช้เวลา": 2512,
      "##ือก": 2513,
      "##เกือบ": 2514,
      "เออ": 2515,
      "##ต้อนรับ": 2516,
      "##กฎ": 2517,
      "##่อย่าง": 2518,
      "##นวน": 2519,
      "##็อก": 2520,
      "##ัจ": 2521,
      "20": 2522,
      "##กด": 2523,
      "##ฝึก": 2524,
      "และจง": 2525,
      "tr": 2526,
      "##พระองค์ทรง": 2527,
      "โทร": 2528,
      "มีคน": 2529,
      "##ข้อง": 2530,
      "##พาะ": 2531,
      "##เกรง": 2532,
      "##อะไรกัน": 2533,
      "##พ์": 2534,
      "##บล": 2535,
      "ฉันบอก": 2536,
      "##คุณจะ": 2537,
      "หนึ่ง": 2538,
      "พระองค์": 2539,
      "เร็วเข้า": 2540,
      "##สด": 2541,
      "##ถูกต้อง": 2542,
      "เช่น": 2543,
      "##ผู้ใด": 2544,
      "##แค่อยาก": 2545,
      "ใจเย็น": 2546,
      "##ยอมรับ": 2547,
      "รถ": 2548,
      "##ให้มัน": 2549,
      "##อิน": 2550,
      "##ต้า": 2551,
      "ผมมี": 2552,
      "##ของพวกเจ้า": 2553,
      "##เลีย": 2554,
      "##เป็นเพื่อน": 2555,
      "ไอ": 2556,
      "##แค่น": 2557,
      "##oo": 2558,
      "##อนุ": 2559,
      "##เมื่อไหร่": 2560,
      "##เชื่อว่า": 2561,
      "ที่ฉัน": 2562,
      "##ียญ": 2563,
      "##ก็ไม่": 2564,
      "##หนึ่งใน": 2565,
      "##เรื่องที่": 2566,
      "##ทำให้คุณ": 2567,
      "##ไหล": 2568,
      "##เป็นที่": 2569,
      "ผมรู้": 2570,
      "##สามี": 2571,
      "##ราช": 2572,
      "##จน์": 2573,
      "##ประทาน": 2574,
      "ผมต้อง": 2575,
      "พา": 2576,
      "##อัล": 2577,
      "##โหล": 2578,
      "##เมต": 2579,
      "ระวัง": 2580,
      "เดี๋ยวก่อน": 2581,
      "##ว่าอะไร": 2582,
      "ฉันจะไม่": 2583,
      "##ริส": 2584,
      "##วัติ": 2585,
      "##เเ": 2586,
      "##ะพ": 2587,
      "##เนอร์": 2588,
      "##โจม": 2589,
      "##ประสบ": 2590,
      "ตำ": 2591,
      "เลย": 2592,
      "##ติน": 2593,
      "ในการ": 2594,
      "##ได้รับการ": 2595,
      "##คับ": 2596,
      "##ยัน": 2597,
      "##ก้า": 2598,
      "##บาด": 2599,
      "##ข้างนอก": 2600,
      "จับ": 2601,
      "##ตั้งใจ": 2602,
      "##el": 2603,
      "##นิดหน่อย": 2604,
      "##ดีใจ": 2605,
      "##เสี่ยง": 2606,
      "##id": 2607,
      "##รณ์": 2608,
      "##ว่าเรา": 2609,
      "##ญาก": 2610,
      "##ฮัม": 2611,
      "##คริส": 2612,
      "##เริ่มต้น": 2613,
      "เหรอ": 2614,
      "##เปอร์": 2615,
      "##งว": 2616,
      "##ณี": 2617,
      "##ญแจ": 2618,
      "สาม": 2619,
      "##ฉลาด": 2620,
      "##ที่อยู่": 2621,
      "##เธข": 2622,
      "##วมไพร์": 2623,
      "##จากการ": 2624,
      "##ส่วนตัว": 2625,
      "##งาม": 2626,
      "##ศึก": 2627,
      "##ร้อย": 2628,
      "##ห้าม": 2629,
      "##ตรวจสอบ": 2630,
      "##เสนอ": 2631,
      "##วาด": 2632,
      "##จ้าง": 2633,
      "ให้ฉัน": 2634,
      "##มาหา": 2635,
      "##มืด": 2636,
      "##คำสั่ง": 2637,
      "##ome": 2638,
      "##ch": 2639,
      "##ไปไม่ได้": 2640,
      "คุณต้องการ": 2641,
      "##ได้ว่า": 2642,
      "##รึยัง": 2643,
      "##เนีย": 2644,
      "##ความลับ": 2645,
      "##ับสน": 2646,
      "##ากล่าวว่า": 2647,
      "ฉันเห็น": 2648,
      "ชีวิต": 2649,
      "##มาให้": 2650,
      "เราไม่": 2651,
      "##ans": 2652,
      "##กระทั่ง": 2653,
      "ฉันจะไป": 2654,
      "##เมตตา": 2655,
      "นั่ง": 2656,
      "แซม": 2657,
      "##จะบอก": 2658,
      "##ตำแหน่ง": 2659,
      "##เดา": 2660,
      "เขาก็": 2661,
      "##เนื้อ": 2662,
      "##ออกไปจาก": 2663,
      "##รส": 2664,
      "##สิบ": 2665,
      "##สงคราม": 2666,
      "##ทำแบบนี้": 2667,
      "##พวกเขาก็": 2668,
      "me": 2669,
      "##ภรรยา": 2670,
      "นั่นแหละ": 2671,
      "##ขา": 2672,
      "##ที่ไม่": 2673,
      "ไม่เคย": 2674,
      "##าร์ล": 2675,
      "##ภาค": 2676,
      "##เฉพาะ": 2677,
      "##ล่าง": 2678,
      "##ทำมัน": 2679,
      "##สาบาน": 2680,
      "ผู้ชาย": 2681,
      "##ชิ้น": 2682,
      "##หวังว่า": 2683,
      "##สิทธิ์": 2684,
      "##เชล": 2685,
      "คิดว่า": 2686,
      "##ะฮ": 2687,
      "ที่คุณ": 2688,
      "##ตายแล้ว": 2689,
      "ได้ยิน": 2690,
      "ตอนที่": 2691,
      "re": 2692,
      "##บร้อย": 2693,
      "##รกิจ": 2694,
      "##่อนข้าง": 2695,
      "ไว้": 2696,
      "##ไปยัง": 2697,
      "##เดท": 2698,
      "พวกนั้น": 2699,
      "รู้มั้ย": 2700,
      "##ว่ะ": 2701,
      "##หัน": 2702,
      "##เคาร": 2703,
      "##ื้อง": 2704,
      "##เขาได้": 2705,
      "##ยังคง": 2706,
      "##จ้ะ": 2707,
      "##ดึง": 2708,
      "##ฤษ": 2709,
      "ผมรู้ว่า": 2710,
      "##คาด": 2711,
      "##เรียบร้อย": 2712,
      "##เดียวกับ": 2713,
      "แน่": 2714,
      "บน": 2715,
      "##อยากได้": 2716,
      "ข้อ": 2717,
      "##ยินดี": 2718,
      "##ยาม": 2719,
      "##ให้นาย": 2720,
      "##เรากำลัง": 2721,
      "ให้ตาย": 2722,
      "##ht": 2723,
      "เท่า": 2724,
      "##สูญเสีย": 2725,
      "##am": 2726,
      "มันมี": 2727,
      "อาจจะ": 2728,
      "##ดัน": 2729,
      "##เคิล": 2730,
      "##ตกร": 2731,
      "ฉันเคย": 2732,
      "##ริค": 2733,
      "ลง": 2734,
      "##ลม": 2735,
      "##นัด": 2736,
      "##บริษัท": 2737,
      "##ame": 2738,
      "##บริสุ": 2739,
      "##ภูมิ": 2740,
      "##ล้ม": 2741,
      "##บาย": 2742,
      "##ือด": 2743,
      "##สัปดาห์": 2744,
      "##เจ็บปวด": 2745,
      "ห้อง": 2746,
      "##จะทรง": 2747,
      "ฉันชอบ": 2748,
      "##ลงมา": 2749,
      "##ิสู": 2750,
      "##สงค์": 2751,
      "##กำหนด": 2752,
      "ซู": 2753,
      "สาว": 2754,
      "##คม": 2755,
      "เขาไม่": 2756,
      "##ซาน": 2757,
      "##มาทำอะไร": 2758,
      "##ere": 2759,
      "อย่างน้อย": 2760,
      "##บาท": 2761,
      "##กับการ": 2762,
      "##อยู่ที่นั่น": 2763,
      "##ซูล": 2764,
      "##แอน": 2765,
      "##อยู": 2766,
      "##ขวัญ": 2767,
      "##เขาไป": 2768,
      "and": 2769,
      "##อุ": 2770,
      "##ชุม": 2771,
      "##ัศ": 2772,
      "##อเมริ": 2773,
      "##ล้าง": 2774,
      "เหล": 2775,
      "##ขับรถ": 2776,
      "ดร": 2777,
      "##กวน": 2778,
      "##ในห้อง": 2779,
      "##แน่ใจว่า": 2780,
      "##ลด": 2781,
      "##แดง": 2782,
      "##อะไรเลย": 2783,
      "##ที่บ้าน": 2784,
      "##หน่วย": 2785,
      "##รน": 2786,
      "ฉันได้": 2787,
      "##มาน": 2788,
      "อ้อ": 2789,
      "##ุฮัม": 2790,
      "##ครู": 2791,
      "##ความช่วยเหลือ": 2792,
      "##สิ่งนี้": 2793,
      "##มายัง": 2794,
      "ออกไป": 2795,
      "โจ": 2796,
      "##ฝ้า": 2797,
      "##พยายามจะ": 2798,
      "##โชคดี": 2799,
      "##ว่าทำไม": 2800,
      "##สนาม": 2801,
      "งั้นก็": 2802,
      "จอห์น": 2803,
      "##ผู้ทรง": 2804,
      "##สมอง": 2805,
      "be": 2806,
      "##ur": 2807,
      "##ประสงค์": 2808,
      "##ระดับ": 2809,
      "##าร์ด": 2810,
      "##ุฮัมมัด": 2811,
      "##อารมณ์": 2812,
      "##แสน": 2813,
      "##เป็นเรื่อง": 2814,
      "##ตกรรม": 2815,
      "##ในตัว": 2816,
      "##โดด": 2817,
      "##ิสูจน์": 2818,
      "##ในวัน": 2819,
      "##ปาร์ตี้": 2820,
      "ฉันไม่เคย": 2821,
      "##รายงาน": 2822,
      "##บริสุทธิ์": 2823,
      "เเ": 2824,
      "##ป่วย": 2825,
      "ตาย": 2826,
      "รู": 2827,
      "##กัด": 2828,
      "##สัญ": 2829,
      "ไม่มีทาง": 2830,
      "##รด": 2831,
      "##รติ": 2832,
      "##ของตัวเอง": 2833,
      "เพียง": 2834,
      "##เศร้า": 2835,
      "wh": 2836,
      "มีใคร": 2837,
      "ขึ้น": 2838,
      "##ไปหมด": 2839,
      "##กว่านี้": 2840,
      "##มหา": 2841,
      "##ขาว": 2842,
      "##เกี่ยวข้อง": 2843,
      "##ทุน": 2844,
      "##ากล": 2845,
      "##การ์": 2846,
      "##อนี่": 2847,
      "##รุษ": 2848,
      "ใช่แล้ว": 2849,
      "##นับ": 2850,
      "ผู้ทรง": 2851,
      "##จะตาย": 2852,
      "##ไม่ค่อย": 2853,
      "##os": 2854,
      "ผมต้องการ": 2855,
      "##FFFF": 2856,
      "##หละ": 2857,
      "บ้าน": 2858,
      "##ฉันไป": 2859,
      "และพวกเขา": 2860,
      "##ประวัติ": 2861,
      "พย": 2862,
      "##บาก": 2863,
      "##ยำ": 2864,
      "##เป็นผู้ทรง": 2865,
      "##บรรดาผู้ที่": 2866,
      "##อนุญา": 2867,
      "##แซ": 2868,
      "เคย": 2869,
      "##สถานที่": 2870,
      "วาง": 2871,
      "##หรือไง": 2872,
      "##ทดสอบ": 2873,
      "##ทับ": 2874,
      "##ด้วยซ้ำ": 2875,
      "##เชิญ": 2876,
      "##อากาศ": 2877,
      "##ามิ": 2878,
      "##ิมพ์": 2879,
      "##ยับ": 2880,
      "##โคร": 2881,
      "เธอต้อง": 2882,
      "##จะให้": 2883,
      "##มากขึ้น": 2884,
      "ฉันไม่อยาก": 2885,
      "##เล็กๆ": 2886,
      "##ขวา": 2887,
      "##คอน": 2888,
      "##แรม": 2889,
      "ต้องการ": 2890,
      "##เป็นยังไง": 2891,
      "##โรงพยาบาล": 2892,
      "เสีย": 2893,
      "##จะทำให้": 2894,
      "รู้ไหม": 2895,
      "##มีใคร": 2896,
      "##เธอไป": 2897,
      "เพราะฉัน": 2898,
      "##อาการ": 2899,
      "##มะ": 2900,
      "ผมขอโทษ": 2901,
      "##หลบ": 2902,
      "หวัง": 2903,
      "##อาด": 2904,
      "ดูสิ": 2905,
      "พยายาม": 2906,
      "##ล้อ": 2907,
      "ฉันขอ": 2908,
      "##โฮ": 2909,
      "##เป็นนัก": 2910,
      "คุณไม่ได้": 2911,
      "โอ้ว": 2912,
      "##เปลี่ยนแปลง": 2913,
      "##รุ่น": 2914,
      "##สิ่งที่คุณ": 2915,
      "##เคารพ": 2916,
      "##ิป": 2917,
      "##ir": 2918,
      "##่อซูล": 2919,
      "##เว้น": 2920,
      "ขอโทษนะ": 2921,
      "##รัส": 2922,
      "##มอบ": 2923,
      "##หัก": 2924,
      "และเมื่อ": 2925,
      "##ข้าว": 2926,
      "##เกียรติ": 2927,
      "##โห": 2928,
      "##ver": 2929,
      "##อบอก": 2930,
      "##ทั้งคู่": 2931,
      "##แนว": 2932,
      "นาง": 2933,
      "##ของท่าน": 2934,
      "##หลุม": 2935,
      "##าร์ท": 2936,
      "##ลู": 2937,
      "##ke": 2938,
      "และถ้า": 2939,
      "##เราะ": 2940,
      "##เซีย": 2941,
      "หล่อน": 2942,
      "##ผมจะ": 2943,
      "น้ำ": 2944,
      "##สวัส": 2945,
      "พวกนาย": 2946,
      "ฉันรู้สึก": 2947,
      "ไม่ว่า": 2948,
      "##ในหมู่": 2949,
      "ฆ่า": 2950,
      "##ฝ่าย": 2951,
      "โทษที": 2952,
      "##ปรับ": 2953,
      "##par": 2954,
      "##นักงาน": 2955,
      "และก็": 2956,
      "##้วน": 2957,
      "##บูรณ์": 2958,
      "##เลยว่า": 2959,
      "##กระจ": 2960,
      "รู้สึก": 2961,
      "จัด": 2962,
      "##ลล์": 2963,
      "##หายใจ": 2964,
      "##ประธาน": 2965,
      "##กระเป๋า": 2966,
      "##เที่ยว": 2967,
      "##ของการ": 2968,
      "##คำตอบ": 2969,
      "##แวมไพร์": 2970,
      "##ผ่า": 2971,
      "##เผย": 2972,
      "##ปฏิเสธศรัทธา": 2973,
      "##ชะ": 2974,
      "##เจ้าหน้าที่": 2975,
      "##เรียกว่า": 2976,
      "##ภาร": 2977,
      "##ฮี": 2978,
      "ถ้าเรา": 2979,
      "##ลักษ": 2980,
      "##จิ": 2981,
      "##บอล": 2982,
      "##th": 2983,
      "##ที่รัก": 2984,
      "##กล่าวเถิด": 2985,
      "##เคลื่อน": 2986,
      "##มิล": 2987,
      "แต่ก็": 2988,
      "เรีย": 2989,
      "that": 2990,
      "##มด": 2991,
      "##พิสูจน์": 2992,
      "##วางแผน": 2993,
      "##ธุรกิจ": 2994,
      "##โป": 2995,
      "##เป้า": 2996,
      "##ทุกๆ": 2997,
      "หน้า": 2998,
      "โปรด": 2999,
      "##อ่ะ": 3000,
      "##ขัน": 3001,
      "##ได้นะ": 3002,
      "##ระวัง": 3003,
      "##ัมภ": 3004,
      "##การลงโทษ": 3005,
      "##เบิร์": 3006,
      "##แก่พวกเจ้า": 3007,
      "##ล้าน": 3008,
      "ที่จริง": 3009,
      "##ให้กับ": 3010,
      "เจ้าหน้าที่": 3011,
      "##ารย์": 3012,
      "ผมขอ": 3013,
      "แต่เธอ": 3014,
      "##ไท": 3015,
      "พวกเจ้า": 3016,
      "##็กซ์": 3017,
      "บริ": 3018,
      "##เธฐ": 3019,
      "##ภายใน": 3020,
      "วิน": 3021,
      "##าก่อน": 3022,
      "##ได้ดี": 3023,
      "##ความรู้สึก": 3024,
      "##จำนวน": 3025,
      "##ธเธ": 3026,
      "พวกเธอ": 3027,
      "เหมือนกับ": 3028,
      "##มิได้": 3029,
      "##ฆาตกรรม": 3030,
      "##ค่อนข้าง": 3031,
      "##งค์": 3032,
      "เธอรู้": 3033,
      "เข้ามา": 3034,
      "##เขาจะ": 3035,
      "##สเตอร์": 3036,
      "##าคต": 3037,
      "แส": 3038,
      "##ion": 3039,
      "##ทุกสิ่ง": 3040,
      "##ลัก": 3041,
      "##สี่": 3042,
      "##นี": 3043,
      "เดิน": 3044,
      "##ตระ": 3045,
      "##ในโลก": 3046,
      "##กลิ่น": 3047,
      "##ตอนที่": 3048,
      "##โทรมา": 3049,
      "##เจ๋ง": 3050,
      "##แตกต่าง": 3051,
      "##๋ว": 3052,
      "##เรน": 3053,
      "##เลน": 3054,
      "##๊ค": 3055,
      "##ทัพ": 3056,
      "##ลิง": 3057,
      "##ิ้": 3058,
      "##ต่ำ": 3059,
      "มันต้อง": 3060,
      "##โจมตี": 3061,
      "โค": 3062,
      "เขามี": 3063,
      "##ปล่อยให้": 3064,
      "##ตะวัน": 3065,
      "อัลลอฮ": 3066,
      "##แผล": 3067,
      "##ตอบแทน": 3068,
      "##ายุ": 3069,
      "##เหอะ": 3070,
      "##เด็กๆ": 3071,
      "##โยน": 3072,
      "##ผิดพลาด": 3073,
      "##มันไม่": 3074,
      "##เฝ้า": 3075,
      "##ที่ผ่านมา": 3076,
      "##ปะ": 3077,
      "##ทำไม่ได้": 3078,
      "##คนนึง": 3079,
      "คืนนี้": 3080,
      "น้อง": 3081,
      "##ที่ต้อง": 3082,
      "##คราว": 3083,
      "ผมแค่": 3084,
      "##แล้วว่า": 3085,
      "##บอกผม": 3086,
      "##เชื่อม": 3087,
      "##สบายดี": 3088,
      "##ผน": 3089,
      "##รักคุณ": 3090,
      "##โต้": 3091,
      "ชาย": 3092,
      "##ย่": 3093,
      "##เขต": 3094,
      "##ุบปาก": 3095,
      "##บาร์": 3096,
      "ก็แค่": 3097,
      "เอาละ": 3098,
      "##ร่า": 3099,
      "##ดีที่สุด": 3100,
      "แต่เรา": 3101,
      "แล้วทำไม": 3102,
      "##ทันที": 3103,
      "trans": 3104,
      "##กับมัน": 3105,
      "000": 3106,
      "##ประจำ": 3107,
      "##สมบูรณ์": 3108,
      "##เธฅ": 3109,
      "##พวกนาย": 3110,
      "##สิทธิ": 3111,
      "##ความรัก": 3112,
      "##ชี้": 3113,
      "##ทำตัว": 3114,
      "##พ่อแม่": 3115,
      "##พยาน": 3116,
      "##อล์": 3117,
      "##ไว้ใน": 3118,
      "##ที่ดีที่สุด": 3119,
      "##อนาคต": 3120,
      "นายจะ": 3121,
      "##ค้นหา": 3122,
      "##พิมพ์": 3123,
      "##เป็นคนที่": 3124,
      "ระหว่าง": 3125,
      "##เซ็น": 3126,
      "##แพง": 3127,
      "##ลำบาก": 3128,
      "ขณะ": 3129,
      "##คอม": 3130,
      "##ดีต": 3131,
      "##ป้องกัน": 3132,
      "You": 3133,
      "ปิด": 3134,
      "ถ้านาย": 3135,
      "##นาที": 3136,
      "##ห้า": 3137,
      "##ความเป็น": 3138,
      "ฉันไม่รู้ว่า": 3139,
      "##เลยล่ะ": 3140,
      "##ปีศาจ": 3141,
      "##เอ๊ย": 3142,
      "แด": 3143,
      "##สะอาด": 3144,
      "ราย": 3145,
      "##สักคน": 3146,
      "แถ": 3147,
      "##สต": 3148,
      "##ไว้ใจ": 3149,
      "แป": 3150,
      "##ลิส": 3151,
      "##ีร์": 3152,
      "##ตัวไป": 3153,
      "##เนเธ": 3154,
      "##สมควร": 3155,
      "##สาท": 3156,
      "##ุนแรง": 3157,
      "เนเธ": 3158,
      "##สวัสดิ์": 3159,
      "##เหร": 3160,
      "##เมีย": 3161,
      "##บาล": 3162,
      "##ป์": 3163,
      "##ขัง": 3164,
      "##เนิน": 3165,
      "ไหน": 3166,
      "##ไม่รู้ว่า": 3167,
      "##ยังไม่ได้": 3168,
      "##เงียบ": 3169,
      "##จะไปไหน": 3170,
      "##โต๊ะ": 3171,
      "สุด": 3172,
      "##ลุก": 3173,
      "##พย์": 3174,
      "##เปล": 3175,
      "##ิช": 3176,
      "##หน่อยสิ": 3177,
      "##จิน": 3178,
      "##อรี่": 3179,
      "##ไม่มีวัน": 3180,
      "จากนั้น": 3181,
      "##รัง": 3182,
      "##ศาล": 3183,
      "##ct": 3184,
      "##เปน": 3185,
      "##คบ": 3186,
      "##เป็นตัว": 3187,
      "##ฉันได้": 3188,
      "##ซึ": 3189,
      "##ยังมี": 3190,
      "##เบื่อ": 3191,
      "##แฟ้ม": 3192,
      "##เสริ": 3193,
      "##ผิดชอบ": 3194,
      "##รีน": 3195,
      "ตำรวจ": 3196,
      "รัก": 3197,
      "##ยศ": 3198,
      "##วยอร์": 3199,
      "##เอ้ย": 3200,
      "##มุม": 3201,
      "##นาม": 3202,
      "##ฐานะ": 3203,
      "##เอียด": 3204,
      "จงกล่าวเถิด": 3205,
      "##กี": 3206,
      "##วัย": 3207,
      "##แอบ": 3208,
      "##ความปลอดภัย": 3209,
      "##เชื้อ": 3210,
      "##อยู่นะ": 3211,
      "แต่เขา": 3212,
      "##โก้": 3213,
      "bg": 3214,
      "##วิด": 3215,
      "##il": 3216,
      "##ight": 3217,
      "##parent": 3218,
      "##ัมภีร์": 3219,
      "จู": 3220,
      "##จะช่วย": 3221,
      "##ผู้คน": 3222,
      "เจน": 3223,
      "##ขนาดนั้น": 3224,
      "ชัค": 3225,
      "##แคร": 3226,
      "##้างั้น": 3227,
      "transparent": 3228,
      "Wh": 3229,
      "##มัก": 3230,
      "##ที่มัน": 3231,
      "##ประกัน": 3232,
      "เป็นไง": 3233,
      "สถ": 3234,
      "##ie": 3235,
      "##ัตรู": 3236,
      "สาย": 3237,
      "##วิญ": 3238,
      "##เมอร์": 3239,
      "##๊บ": 3240,
      "##เลวร้าย": 3241,
      "แสดง": 3242,
      "##ต้องการอะไร": 3243,
      "##หัวหน้า": 3244,
      "##เช่นนั้น": 3245,
      "##เธด": 3246,
      "##ข้างใน": 3247,
      "##กาศ": 3248,
      "นายต้อง": 3249,
      "##เฉย": 3250,
      "##เรามา": 3251,
      "##ติธรรม": 3252,
      "##มั้ง": 3253,
      "##ุต": 3254,
      "พวกเขาจะ": 3255,
      "##จักร": 3256,
      "##จอด": 3257,
      "##วว": 3258,
      "##ฝัง": 3259,
      "##ว่าเป็น": 3260,
      "##ละเอียด": 3261,
      "19": 3262,
      "##ไปใน": 3263,
      "##ไปหน่อย": 3264,
      "##เน": 3265,
      "##จนกว่า": 3266,
      "##จูบ": 3267,
      "วิธี": 3268,
      "##แก้ว": 3269,
      "##ใส": 3270,
      "##un": 3271,
      "##ประชา": 3272,
      "##บังคับ": 3273,
      "##เที่ยง": 3274,
      "##ไห้": 3275,
      "##ก็รู้": 3276,
      "The": 3277,
      "อ้า": 3278,
      "##รหัส": 3279,
      "##ั": 3280,
      "ผมไม่รู้": 3281,
      "st": 3282,
      "อัล": 3283,
      "##รุนแรง": 3284,
      "##ตู้": 3285,
      "##ขั้น": 3286,
      "##เรียนรู้": 3287,
      "คุณได้": 3288,
      "##เธอร์": 3289,
      "ถ้าผม": 3290,
      "##พบุ": 3291,
      "##กล้อง": 3292,
      "##จะทำยังไง": 3293,
      "##จดหมาย": 3294,
      "เราต้องการ": 3295,
      "##หาทาง": 3296,
      "##ต่างๆ": 3297,
      "ฉันเสียใจ": 3298,
      "เว้น": 3299,
      "##ฆาตกร": 3300,
      "##ตรา": 3301,
      "##ก็เป็น": 3302,
      "##แท้": 3303,
      "แค่น": 3304,
      "บาย": 3305,
      "สง": 3306,
      "##ยึด": 3307,
      "##ฉันนะ": 3308,
      "##น่ารัก": 3309,
      "เจอ": 3310,
      "ภา": 3311,
      "##ช์": 3312,
      "##เธอจะ": 3313,
      "เธอมี": 3314,
      "##ปราก": 3315,
      "##เนี่ยนะ": 3316,
      "##ชัดเจน": 3317,
      "##็ท": 3318,
      "##โรงแรม": 3319,
      "##ิ้ล": 3320,
      "ผมกำลัง": 3321,
      "เชิญ": 3322,
      "##กฏ": 3323,
      "##ทรั": 3324,
      "ฉันเข้าใจ": 3325,
      "##ยาว": 3326,
      "##อุป": 3327,
      "##ทำแบบนั้น": 3328,
      "##หลาน": 3329,
      "##สงบ": 3330,
      "ถ้างั้น": 3331,
      "##ผ่อน": 3332,
      "##แกรม": 3333,
      "##ไก": 3334,
      "##ที่เหลือ": 3335,
      "โม": 3336,
      "##ในชีวิต": 3337,
      "แต่ตอนนี้": 3338,
      "ดีใจ": 3339,
      "##เมา": 3340,
      "##ปรา": 3341,
      "##เรื่อย": 3342,
      "##ของลูก": 3343,
      "เรายัง": 3344,
      "##ลลี่": 3345,
      "##ก็น": 3346,
      "##เธ": 3347,
      "##านั้น": 3348,
      "##พวกเค้า": 3349,
      "##เหลว": 3350,
      "อยู่ใน": 3351,
      "##ุบัติ": 3352,
      "กรุณ": 3353,
      "รีบ": 3354,
      "##วาย": 3355,
      "##ผิว": 3356,
      "##๋อ": 3357,
      "เขากำลัง": 3358,
      "และการ": 3359,
      "##เวน": 3360,
      "##แค้น": 3361,
      "##จม": 3362,
      "##แล้วกัน": 3363,
      "##ประชุม": 3364,
      "##ลอม": 3365,
      "##พื้นที่": 3366,
      "##มั่ง": 3367,
      "##นัน": 3368,
      "##เธซ": 3369,
      "ผมหมายถึง": 3370,
      "##เอามัน": 3371,
      "เคล": 3372,
      "##ยม": 3373,
      "##ด้า": 3374,
      "##มันไป": 3375,
      "##รางว": 3376,
      "##เช็ค": 3377,
      "##สมา": 3378,
      "แล้วถ้า": 3379,
      "##รึไง": 3380,
      "##าะห์": 3381,
      "##เธน": 3382,
      "เธอบอก": 3383,
      "##คงต้อง": 3384,
      "##ักษ์": 3385,
      "ชั่ว": 3386,
      "##ทาย": 3387,
      "##แล้วก็": 3388,
      "เขาไม่ได้": 3389,
      "##ประมาณ": 3390,
      "ขอบคุณมาก": 3391,
      "##ตื่นเต้น": 3392,
      "##อนุญาต": 3393,
      "##จะพูด": 3394,
      "##คำพูด": 3395,
      "##เล็กน้อย": 3396,
      "โชคดี": 3397,
      "30": 3398,
      "##ce": 3399,
      "do": 3400,
      "##ูง": 3401,
      "##เขามา": 3402,
      "และเราได้": 3403,
      "##สิ่งที่ฉัน": 3404,
      "##ังก": 3405,
      "ไม่หรอก": 3406,
      "##สนิท": 3407,
      "##เด็น": 3408,
      "##เตียง": 3409,
      "หรือว่า": 3410,
      "##วิทยา": 3411,
      "##พบุรุษ": 3412,
      "##สื่อ": 3413,
      "##คุณได้": 3414,
      "##วิญญาณ": 3415,
      "##คัมภีร์": 3416,
      "##กับเรา": 3417,
      "##แก้ไข": 3418,
      "วิล": 3419,
      "##อัลลอฮ์นั้น": 3420,
      "##คัน": 3421,
      "##ไปถึง": 3422,
      "##ไม่ชอบ": 3423,
      "##พี่ชาย": 3424,
      "12": 3425,
      "ลู": 3426,
      "##ะนั้น": 3427,
      "##ไม่กี่": 3428,
      "##ีก่อน": 3429,
      "##รับผิดชอบ": 3430,
      "##เง่า": 3431,
      "##ทรงให้": 3432,
      "##มีชีวิตอยู่": 3433,
      "##อบบี้": 3434,
      "##กันแล้ว": 3435,
      "##ไหม้": 3436,
      "บรรดา": 3437,
      "##เอกสาร": 3438,
      "##จร": 3439,
      "##หิน": 3440,
      "##มาส": 3441,
      "ข้าจะ": 3442,
      "##มานาน": 3443,
      "เธอกำลัง": 3444,
      "##ัจจ": 3445,
      "15": 3446,
      "is": 3447,
      "##พึ่ง": 3448,
      "##ุบัติเหตุ": 3449,
      "คล": 3450,
      "##ทำการ": 3451,
      "จะได้": 3452,
      "##นิ้ว": 3453,
      "เงิน": 3454,
      "ครู": 3455,
      "##มันไว้": 3456,
      "##ไข้": 3457,
      "##เสื้อผ้า": 3458,
      "##ค่ำ": 3459,
      "##เธต": 3460,
      "##สักหน่อย": 3461,
      "ซี": 3462,
      "##ลร์": 3463,
      "##้ก": 3464,
      "##เราต้อง": 3465,
      "##ไม่ได้หรอก": 3466,
      "##ซะอีก": 3467,
      "##ส่วนหนึ่ง": 3468,
      "##มาทำอะไรที่นี่": 3469,
      "##อะไรอยู่": 3470,
      "##รอบรู้": 3471,
      "มันไม่ได้": 3472,
      "##พิษ": 3473,
      "##รายการ": 3474,
      "และเขา": 3475,
      "##ธรรมดา": 3476,
      "นา": 3477,
      "##ว่านาย": 3478,
      "##ิ้ม": 3479,
      "ที่ผม": 3480,
      "##ลบ": 3481,
      "##สุดๆ": 3482,
      "##บาดเจ็บ": 3483,
      "##จา": 3484,
      "##ไม่ยอม": 3485,
      "##คุณก็": 3486,
      "##เชื่อใจ": 3487,
      "ขอบคุณที่": 3488,
      "my": 3489,
      "##ไม๊": 3490,
      "ขอบคุณค่ะ": 3491,
      "โรง": 3492,
      "##อึ": 3493,
      "##ฟัน": 3494,
      "##มาตลอด": 3495,
      "##เคราะห์": 3496,
      "##ขยะ": 3497,
      "##ไม่ต้องการ": 3498,
      "##อะไรบ้าง": 3499,
      "##กุญแจ": 3500,
      "ยิง": 3501,
      "ห้าม": 3502,
      "โว": 3503,
      "##ชั่น": 3504,
      "##ข้าพระองค์": 3505,
      "ขอให้": 3506,
      "##แทบ": 3507,
      "##แบ่ง": 3508,
      "##ทอง": 3509,
      "##ศัย": 3510,
      "##เธ": 3511,
      "##หนี้": 3512,
      "นายรู้": 3513,
      "##อว์": 3514,
      "##ัฐ": 3515,
      "##ill": 3516,
      "คุณทำ": 3517,
      "พวกท่าน": 3518,
      "หมายความว่า": 3519,
      "##เดน": 3520,
      "##เบล": 3521,
      "##ภาษา": 3522,
      "ถูกต้อง": 3523,
      "##ขนาดนี้": 3524,
      "##แหล": 3525,
      "##ไม่ให้": 3526,
      "##หมดแล้ว": 3527,
      "##ูนย์": 3528,
      "##ก้าว": 3529,
      "##ความสุข": 3530,
      "##กาล": 3531,
      "##สภาพ": 3532,
      "##เป็นเจ้า": 3533,
      "##ของพ่อ": 3534,
      "ได้เลย": 3535,
      "เตร": 3536,
      "##ได้อย่างไร": 3537,
      "มากกว่า": 3538,
      "นี่ไม่ใช่": 3539,
      "##เหรียญ": 3540,
      "กิน": 3541,
      "หาย": 3542,
      "##ไปให้": 3543,
      "ฉันอยากจะ": 3544,
      "##มีปัญหา": 3545,
      "##เบื้อง": 3546,
      "##ม้า": 3547,
      "##ฟฟ": 3548,
      "ทุกๆ": 3549,
      "เดือน": 3550,
      "เฟ": 3551,
      "##ความตาย": 3552,
      "for": 3553,
      "แดน": 3554,
      "##ถูกจับ": 3555,
      "##จำได้": 3556,
      "##อิสระ": 3557,
      "##เหนื่อย": 3558,
      "##จะทำอะไร": 3559,
      "##เป็นเด็ก": 3560,
      "และตอนนี้": 3561,
      "##เกร": 3562,
      "##เหตุการณ์": 3563,
      "##ร่างกาย": 3564,
      "##ชัย": 3565,
      "##ประกาศ": 3566,
      "จริงๆแล้ว": 3567,
      "##บุก": 3568,
      "##ขวาง": 3569,
      "ถอย": 3570,
      "มาร์": 3571,
      "##อิ": 3572,
      "##ลุ": 3573,
      "##im": 3574,
      "##ell": 3575,
      "##อย่างที่": 3576,
      "##สาป": 3577,
      "##เพียงแค่": 3578,
      "ครอบครัว": 3579,
      "ไม่รู้สิ": 3580,
      "เผ": 3581,
      "##อธรรม": 3582,
      "##ถู": 3583,
      "##เป็นของ": 3584,
      "##มานี่": 3585,
      "คุณเคย": 3586,
      "ทำไมเธอ": 3587,
      "สุ": 3588,
      "##ไม่เป็นไร": 3589,
      "##เธอน": 3590,
      "##กล่อง": 3591,
      "เก็บ": 3592,
      "##เกาะ": 3593,
      "แน่ใจ": 3594,
      "##สรร": 3595,
      "##ทอด": 3596,
      "##ศัตรู": 3597,
      "โอ้พระเจ้า": 3598,
      "เตรียม": 3599,
      "sh": 3600,
      "##ต้าน": 3601,
      "คุณนาย": 3602,
      "##ออกมาจาก": 3603,
      "ยิ่ง": 3604,
      "ที่มี": 3605,
      "##เอ๋ย": 3606,
      "##าร์ลี": 3607,
      "##คุ้มครอง": 3608,
      "อ๋อ": 3609,
      "##ea": 3610,
      "##ทำตาม": 3611,
      "##ระยะ": 3612,
      "##แปลกๆ": 3613,
      "##หน้าต่าง": 3614,
      "หมายถึง": 3615,
      "ทอม": 3616,
      "โซ": 3617,
      "##ชิก": 3618,
      "##ผี": 3619,
      "##๊า": 3620,
      "##ากับ": 3621,
      "ทีนี้": 3622,
      "ตลอด": 3623,
      "นิ": 3624,
      "ใส่": 3625,
      "##ยอง": 3626,
      "##กิ": 3627,
      "##ให้แก่": 3628,
      "เปลี่ยน": 3629,
      "##แพทย์": 3630,
      "##เผา": 3631,
      "##เป็นไงบ้าง": 3632,
      "##ปลอม": 3633,
      "##ให้พวกเขา": 3634,
      "##ช่อง": 3635,
      "และนั่น": 3636,
      "##ช่วยชีวิต": 3637,
      "##วันที่": 3638,
      "เว้นแต่": 3639,
      "##ทรัพย์": 3640,
      "##อช": 3641,
      "##ย่า": 3642,
      "##ว้าง": 3643,
      "##กับแม่": 3644,
      "##ภาษ": 3645,
      "เราไม่ได้": 3646,
      "หรือไม่": 3647,
      "เลิก": 3648,
      "หัวหน้า": 3649,
      "##จะฆ่า": 3650,
      "##เรารู้": 3651,
      "##ความดี": 3652,
      "##พอใจ": 3653,
      "##ลวง": 3654,
      "##ละกัน": 3655,
      "ขอร้อง": 3656,
      "เฮ้ย": 3657,
      "ความจริง": 3658,
      "##ก์": 3659,
      "##แกล": 3660,
      "##แลนด์": 3661,
      "แบ": 3662,
      "##มส์": 3663,
      "##ชวน": 3664,
      "##บัตร": 3665,
      "##ซับ": 3666,
      "##ทนาย": 3667,
      "##ดีมาก": 3668,
      "##เหล้า": 3669,
      "##นอกจาก": 3670,
      "##เวิ": 3671,
      "##แช": 3672,
      "##ปัจจ": 3673,
      "##มาเป็น": 3674,
      "##หลวง": 3675,
      "##หิว": 3676,
      "##เลน่า": 3677,
      "##มาที่": 3678,
      "ไร": 3679,
      "##มอน": 3680,
      "##ประก": 3681,
      "##แน่น": 3682,
      "ทำไมไม่": 3683,
      "##ยิ่งใหญ่": 3684,
      "ชั่วโมง": 3685,
      "หุบปาก": 3686,
      "##วิส": 3687,
      "##เหรอคะ": 3688,
      "##บางที": 3689,
      "##กู": 3690,
      "เขาบอกว่า": 3691,
      "##ทางนี้": 3692,
      "##กฎหมาย": 3693,
      "เรียก": 3694,
      "##ตัก": 3695,
      "##ทำให้มัน": 3696,
      "##ทำให้เธอ": 3697,
      "ลืม": 3698,
      "##บอกเธอ": 3699,
      "##บ่อย": 3700,
      "ดีมาก": 3701,
      "สถาน": 3702,
      "คา": 3703,
      "มอร์": 3704,
      "ลี": 3705,
      "##ของพวก": 3706,
      "##บอกอะไร": 3707,
      "เรามา": 3708,
      "ไม่ต้องห่วง": 3709,
      "##ยืนยัน": 3710,
      "##รางวัล": 3711,
      "ข้าง": 3712,
      "##แซม": 3713,
      "##ให้เป็น": 3714,
      "##รักเธอ": 3715,
      "ผมเห็น": 3716,
      "อืมม": 3717,
      "##รำลึก": 3718,
      "##คุณไป": 3719,
      "##มนต์": 3720,
      "##ลีย์": 3721,
      "##นุษย์": 3722,
      "##๊ด": 3723,
      "##สังเก": 3724,
      "เกร": 3725,
      "##ตึก": 3726,
      "##ยุติธรรม": 3727,
      "หมอ": 3728,
      "##อดีต": 3729,
      "##มาด้วย": 3730,
      "นั่นไม่ใช่": 3731,
      "บางครั้ง": 3732,
      "##ี้ยว": 3733,
      "##ซ่อม": 3734,
      "##นก": 3735,
      "##ไม่นาน": 3736,
      "คุณเห็น": 3737,
      "##เธฑ": 3738,
      "คุณอยาก": 3739,
      "##เรื่องการ": 3740,
      "##od": 3741,
      "##บอกให้": 3742,
      "##แตะ": 3743,
      "##เปิดเผย": 3744,
      "เงียบ": 3745,
      "##ื้": 3746,
      "##ของพวกเรา": 3747,
      "##ขึ้นไป": 3748,
      "##ติดตาม": 3749,
      "เดี๋ยวนี้": 3750,
      "kn": 3751,
      "##ของแก": 3752,
      "##ทางการ": 3753,
      "##แนน": 3754,
      "##อย่างอื่น": 3755,
      "วอล": 3756,
      "##จันท": 3757,
      "##อาจจะเป็น": 3758,
      "##เภท": 3759,
      "แย่": 3760,
      "##ไฮ": 3761,
      "##ฉันมา": 3762,
      "##ราคา": 3763,
      "##ผมก็": 3764,
      "และแท้จริง": 3765,
      "##ทรมาน": 3766,
      "##สถานการณ์": 3767,
      "##เป้าหมาย": 3768,
      "##ัฒ": 3769,
      "##ปา": 3770,
      "##ดำเนิน": 3771,
      "แพ": 3772,
      "ผมว่า": 3773,
      "##นี่มัน": 3774,
      "แล้วนาย": 3775,
      "##เวลาที่": 3776,
      "##เหมาะสม": 3777,
      "ha": 3778,
      "โฮ": 3779,
      "##หง": 3780,
      "##วก็": 3781,
      "ติด": 3782,
      "##ชญาก": 3783,
      "##สาน": 3784,
      "##ารัก": 3785,
      "##ตรงไหน": 3786,
      "##ฟื้น": 3787,
      "##อนั่น": 3788,
      "##ไงล่ะ": 3789,
      "##น่ะสิ": 3790,
      "##ซะที": 3791,
      "ช่วง": 3792,
      "ภาย": 3793,
      "เบน": 3794,
      "##่าบาท": 3795,
      "##เธฃเธ": 3796,
      "มุฮัมมัด": 3797,
      "##ไปตาม": 3798,
      "##เป็นห่วง": 3799,
      "##อยู่ด้วยกัน": 3800,
      "##ชั้นฟ้า": 3801,
      "##สาระ": 3802,
      "##แลก": 3803,
      "##เลยเหรอ": 3804,
      "ทำงาน": 3805,
      "เพื่อให้": 3806,
      "##วน์": 3807,
      "##แม้แต่": 3808,
      "นาน": 3809,
      "สัก": 3810,
      "##จี": 3811,
      "##่าจะ": 3812,
      "##ศึกษา": 3813,
      "เธอไม่ได้": 3814,
      "##คาร์": 3815,
      "##คลับ": 3816,
      "##เอามา": 3817,
      "ถึงแม้": 3818,
      "##ร่อซูล": 3819,
      "##ี่เง่า": 3820,
      "ไม่งั้น": 3821,
      "##คิดว่าฉัน": 3822,
      "##เอาไป": 3823,
      "##ไปที่นั่น": 3824,
      "ดื่ม": 3825,
      "##บัด": 3826,
      "##เติม": 3827,
      "##เมื่อคืน": 3828,
      "แจ็ค": 3829,
      "คริส": 3830,
      "##ซ้าย": 3831,
      "##ช่วยฉัน": 3832,
      "##สักอย่าง": 3833,
      "your": 3834,
      "##ไม่ออก": 3835,
      "##เขามี": 3836,
      "ฉันไป": 3837,
      "##ครอบ": 3838,
      "เอาเลย": 3839,
      "##สวม": 3840,
      "##ปลา": 3841,
      "##มิลี่": 3842,
      "สร": 3843,
      "##ยู": 3844,
      "##ขยับ": 3845,
      "##ฝั่ง": 3846,
      "##นะว่า": 3847,
      "##นั้นหรือ": 3848,
      "พรุ่งนี้": 3849,
      "##ของแม่": 3850,
      "##สัตย์": 3851,
      "##อัด": 3852,
      "##พวกเขาได้": 3853,
      "##ปราน": 3854,
      "ให้ผม": 3855,
      "##เดียวที่": 3856,
      "##พอแล้ว": 3857,
      "##ตลอดเวลา": 3858,
      "##อฟฟ": 3859,
      "##ยาล": 3860,
      "##ee": 3861,
      "##ไปซะ": 3862,
      "ฉันเพิ่ง": 3863,
      "##เมน": 3864,
      "##แกร": 3865,
      "##เช่นกัน": 3866,
      "##op": 3867,
      "##เป็นพวก": 3868,
      "##อีกที": 3869,
      "##เซ็ก": 3870,
      "##ังกฤษ": 3871,
      "แผน": 3872,
      "##อ้าง": 3873,
      "##ค้าง": 3874,
      "ชอบ": 3875,
      "##บัติ": 3876,
      "##ของอัลลอฮฺ": 3877,
      "เราจะไป": 3878,
      "##ฆ่าเขา": 3879,
      "##ดอน": 3880,
      "##ดูด": 3881,
      "ฉันได้ยิน": 3882,
      "เรารู้": 3883,
      "##แขน": 3884,
      "รวม": 3885,
      "##พาตัว": 3886,
      "ไฟ": 3887,
      "##ข์": 3888,
      "##ไปทาง": 3889,
      "##อาศัย": 3890,
      "##เร็วๆ": 3891,
      "ฉันยัง": 3892,
      "และเรา": 3893,
      "ไมค์": 3894,
      "##ถุง": 3895,
      "ผมได้": 3896,
      "##ใช่มั๊ย": 3897,
      "##ทรงจำ": 3898,
      "มือ": 3899,
      "##เปร": 3900,
      "##กระดูก": 3901,
      "##ไม่รู้จัก": 3902,
      "ถาม": 3903,
      "##ถอด": 3904,
      "##โพ": 3905,
      "##โคล": 3906,
      "##พิจาร": 3907,
      "##เครื่องบิน": 3908,
      "##จิตใจ": 3909,
      "ผล": 3910,
      "##ม่า": 3911,
      "##บัน": 3912,
      "##ter": 3913,
      "##โร่": 3914,
      "##ัคร": 3915,
      "##ดีย": 3916,
      "ฉันอยากให้": 3917,
      "##ต้องการให้": 3918,
      "##เนเธ": 3919,
      "##ัปตัน": 3920,
      "50": 3921,
      "##ของขวัญ": 3922,
      "##เซล": 3923,
      "##ขณะที่": 3924,
      "##เเล้ว": 3925,
      "##ยำเกรง": 3926,
      "กรุณา": 3927,
      "##ภัก": 3928,
      "##ของพวกท่าน": 3929,
      "##อื่นๆ": 3930,
      "##นาคาร": 3931,
      "##โชว์": 3932,
      "##ไต": 3933,
      "##ag": 3934,
      "##เน": 3935,
      "ได้รับ": 3936,
      "##พยายามที่จะ": 3937,
      "##ith": 3938,
      "##ับสนุน": 3939,
      "##ยาลัย": 3940,
      "##ใช้ชีวิต": 3941,
      "##บ้าอะไร": 3942,
      "ช่วยด้วย": 3943,
      "ปก": 3944,
      "##ริย์": 3945,
      "มันเป็นเรื่อง": 3946,
      "เล่น": 3947,
      "##ซื่อ": 3948,
      "##ประทับ": 3949,
      "##เวิร์": 3950,
      "##กันเลย": 3951,
      "ถ้าเขา": 3952,
      "##ฝาก": 3953,
      "##ัตริย์": 3954,
      "##ยนต์": 3955,
      "##ะฐ": 3956,
      "##ษัตริย์": 3957,
      "##มาได้": 3958,
      "##กรณ์": 3959,
      "##สมัย": 3960,
      "##อเมริกา": 3961,
      "##ผ่าตัด": 3962,
      "คู่": 3963,
      "##ทีหลัง": 3964,
      "##ถูกฆ่า": 3965,
      "และฉันก็": 3966,
      "##พันธุ": 3967,
      "##เชียว": 3968,
      "##หน่อยนะ": 3969,
      "##ภูมิใจ": 3970,
      "##่ออก": 3971,
      "##ช่วยคุณ": 3972,
      "##ร้องไห้": 3973,
      "สน": 3974,
      "##พบคุณ": 3975,
      "##หวาน": 3976,
      "##อค": 3977,
      "##่ห์": 3978,
      "##ชิญ": 3979,
      "คุณสามารถ": 3980,
      "##แปล": 3981,
      "##ดาร": 3982,
      "ไม่เห็น": 3983,
      "##ป่าว": 3984,
      "เธอยัง": 3985,
      "ที่เรา": 3986,
      "##จันทร์": 3987,
      "##ของอัลลอฮ์": 3988,
      "เป็นอะไร": 3989,
      "หนัง": 3990,
      "##ol": 3991,
      "วิ่ง": 3992,
      "##ณฑ": 3993,
      "##ที่สอง": 3994,
      "##เจาะ": 3995,
      "##กับคน": 3996,
      "ได้สิ": 3997,
      "##กาแฟ": 3998,
      "ยินดีต้อนรับ": 3999,
      "##ฝน": 4000,
      "##หลุด": 4001,
      "##เนเธก": 4002,
      "##all": 4003,
      "##ไม่เข้าใจ": 4004,
      "และมัน": 4005,
      "##โกน": 4006,
      "##ากัน": 4007,
      "##ี่ยน": 4008,
      "ปีเตอร์": 4009,
      "แล้วไง": 4010,
      "##ปรารถ": 4011,
      "##เธญเธข": 4012,
      "##Name": 4013,
      "ผมเป็น": 4014,
      "##กับนาย": 4015,
      "##เบน": 4016,
      "ทำไมถึง": 4017,
      "##อยู่ในนั้น": 4018,
      "ดีน": 4019,
      "##มาจากไหน": 4020,
      "##ไลน์": 4021,
      "รูป": 4022,
      "##สก": 4023,
      "##หน่ะ": 4024,
      "##รู้เรื่อง": 4025,
      "##ตัวตน": 4026,
      "##ดูดี": 4027,
      "##เตฟ": 4028,
      "##พันธุ์": 4029,
      "คาร์": 4030,
      "##ซ้อม": 4031,
      "##ริก": 4032,
      "##ตอนนั้น": 4033,
      "เสียใจ": 4034,
      "สี": 4035,
      "โลก": 4036,
      "##มุ่ง": 4037,
      "##ey": 4038,
      "แล้วเธอ": 4039,
      "##บ้างไหม": 4040,
      "##มองหา": 4041,
      "ดิ": 4042,
      "##ว่าพวกเขา": 4043,
      "ผมเข้าใจ": 4044,
      "##เชิง": 4045,
      "ด้วยความ": 4046,
      "##บำ": 4047,
      "##เรายัง": 4048,
      "##ต้องการที่จะ": 4049,
      "ตื่น": 4050,
      "##เธฃ": 4051,
      "##อยู่ตรงนี้": 4052,
      "##เคียง": 4053,
      "##อร์น": 4054,
      "we": 4055,
      "##ธิ": 4056,
      "##มีเรื่อง": 4057,
      "li": 4058,
      "##รั่ง": 4059,
      "##ชิด": 4060,
      "##พี": 4061,
      "##ทิศ": 4062,
      "##ให้ดี": 4063,
      "##สถานี": 4064,
      "##ทดลอง": 4065,
      "##ต้องสงสัย": 4066,
      "##ดูสิ": 4067,
      "ทำอะไร": 4068,
      "อย่ามา": 4069,
      "##รถไฟ": 4070,
      "ลูกชาย": 4071,
      "เนเธ": 4072,
      "จุด": 4073,
      "##ลัย": 4074,
      "##นักสืบ": 4075,
      "เหตุ": 4076,
      "##หนีไป": 4077,
      "จนกระทั่ง": 4078,
      "##ปริ": 4079,
      "##เน็ต": 4080,
      "เมอร์": 4081,
      "ชน": 4082,
      "##ูต": 4083,
      "##ให้พ้น": 4084,
      "##ก็ต้อง": 4085,
      "ผมจะไป": 4086,
      "##มากับ": 4087,
      "อะไรกัน": 4088,
      "##แข่งขัน": 4089,
      "##อุบัติเหตุ": 4090,
      "##ด่วน": 4091,
      "##เร่ง": 4092,
      "##ทุกข์": 4093,
      "##แต่ละ": 4094,
      "##ถ้าคุณ": 4095,
      "##เธธเธ": 4096,
      "พวกเขาก็": 4097,
      "##บัญชี": 4098,
      "##เนื่อง": 4099,
      "##เทอร์": 4100,
      "##ามิได้": 4101,
      "##แกร่ง": 4102,
      "##อี้": 4103,
      "##ฉลอง": 4104,
      "ลิ": 4105,
      "##แหล่ะ": 4106,
      "##ฝี": 4107,
      "##ความฝัน": 4108,
      "ที่ไหน": 4109,
      "##ด้วยการ": 4110,
      "##บบี้": 4111,
      "##สนา": 4112,
      "##สมัคร": 4113,
      "คุณก็รู้": 4114,
      "##ตักเตือน": 4115,
      "ขน": 4116,
      "##ไพร": 4117,
      "##ของคน": 4118,
      "ไม่เลย": 4119,
      "##ตัวตาย": 4120,
      "##กว่านั้น": 4121,
      "##ิลลี่": 4122,
      "ดูนี่": 4123,
      "##คลุม": 4124,
      "##ธาร": 4125,
      "##เธฐ": 4126,
      "##ากระ": 4127,
      "##หนาว": 4128,
      "และเธอ": 4129,
      "##ทำให้ผม": 4130,
      "##อาจเป็น": 4131,
      "go": 4132,
      "##ดัก": 4133,
      "##ได้ทรง": 4134,
      "เดี๋ยวนะ": 4135,
      "##ประกอบ": 4136,
      "##เคน": 4137,
      "##pp": 4138,
      "##สนับสนุน": 4139,
      "##รวด": 4140,
      "##ลอย": 4141,
      "##อะไรบางอย่าง": 4142,
      "##เธฒเธข": 4143,
      "##สวยงาม": 4144,
      "##วิทยาลัย": 4145,
      "##เธธเธ": 4146,
      "200": 4147,
      "##ซ้อน": 4148,
      "##นรี่": 4149,
      "##ให้ความ": 4150,
      "##อนนี่": 4151,
      "และหาก": 4152,
      "##สิ่งใด": 4153,
      "##เคยเป็น": 4154,
      "##บางสิ่ง": 4155,
      "มันน่า": 4156,
      "##ด้วยความ": 4157,
      "##ผิดปกติ": 4158,
      "##ปรารถนา": 4159,
      "##รษ": 4160,
      "##ุ้น": 4161,
      "##ที่นี้": 4162,
      "##ไม่ควร": 4163,
      "##ก็มี": 4164,
      "##เด็ด": 4165,
      "พวกเค้า": 4166,
      "##ดาษ": 4167,
      "##ปลาย": 4168,
      "##แขก": 4169,
      "##พระเจ้าของเจ้า": 4170,
      "##ชัก": 4171,
      "##ไม่เป็น": 4172,
      "##ทำความ": 4173,
      "##นั่นแหละ": 4174,
      "##อดทน": 4175,
      "##เมื่อวาน": 4176,
      "##หัวเราะ": 4177,
      "##เมืองนี้": 4178,
      "##นิวยอร์": 4179,
      "ไมเคิล": 4180,
      "คุย": 4181,
      "ผ่าน": 4182,
      "##ผัส": 4183,
      "##อกับ": 4184,
      "##เธอได้": 4185,
      "##จากไป": 4186,
      "##ทุกวัน": 4187,
      "##สุดยอด": 4188,
      "##เสียหาย": 4189,
      "##ง่ายๆ": 4190,
      "จัดการ": 4191,
      "ไปกันเถอะ": 4192,
      "ทางนี้": 4193,
      "ตา": 4194,
      "##ลุง": 4195,
      "##กว้าง": 4196,
      "##ปี้": 4197,
      "##เห็นว่า": 4198,
      "##กระสุน": 4199,
      "##ฆ่าคน": 4200,
      "ทำไมคุณถึง": 4201,
      "โว้ว": 4202,
      "ไฮ": 4203,
      "##ม่อน": 4204,
      "##คือการ": 4205,
      "##เหล็ก": 4206,
      "##ชนิด": 4207,
      "##ant": 4208,
      "##วอน": 4209,
      "##ศูนย์": 4210,
      "##เธอยัง": 4211,
      "##เจอร์": 4212,
      "##ทำให้เขา": 4213,
      "##ปลด": 4214,
      "จริงเหรอ": 4215,
      "##เธญเธเธ": 4216,
      "##ust": 4217,
      "he": 4218,
      "##อยู่ตรงนั้น": 4219,
      "ว่าคุณ": 4220,
      "ประมาณ": 4221,
      "##เฉยๆ": 4222,
      "##นี้เป็น": 4223,
      "##ต้องเป็น": 4224,
      "##พอดี": 4225,
      "##แปลกใจ": 4226,
      "##ภักดี": 4227,
      "##ack": 4228,
      "##เมล": 4229,
      "โธ": 4230,
      "##อังกฤษ": 4231,
      "##สว่าง": 4232,
      "เขาเป็นคน": 4233,
      "##ใช่น": 4234,
      "##ิสเตอร์": 4235,
      "##ร้องเพลง": 4236,
      "เหย": 4237,
      "โบ": 4238,
      "##ครบ": 4239,
      "##ลูกค้า": 4240,
      "##วันเกิด": 4241,
      "##โปรแกรม": 4242,
      "##จบแล้ว": 4243,
      "##วบ": 4244,
      "##เก็": 4245,
      "##ขู่": 4246,
      "##จะรู้": 4247,
      "ในที่สุด": 4248,
      "##ิกา": 4249,
      "##ธรรมชาติ": 4250,
      "กัน": 4251,
      "ลาก่อน": 4252,
      "##ว่าใคร": 4253,
      "##เข้ม": 4254,
      "แก่": 4255,
      "##แกล้ง": 4256,
      "เมื่อไหร่": 4257,
      "##่ย": 4258,
      "##ย่อม": 4259,
      "##ารี": 4260,
      "##ประสาท": 4261,
      "##มองเห็น": 4262,
      "คุณรู้ไหม": 4263,
      "##เหมือนเดิม": 4264,
      "##น่ะเหรอ": 4265,
      "ก่อนที่": 4266,
      "หลาย": 4267,
      "##ู้ด": 4268,
      "##ทำอย่างนั้น": 4269,
      "มีบางอย่าง": 4270,
      "##ตกใจ": 4271,
      "##โครง": 4272,
      "##ล้อเล่น": 4273,
      "##รุก": 4274,
      "##um": 4275,
      "##สมบัติ": 4276,
      "รอย": 4277,
      "เต": 4278,
      "##แล้วเหรอ": 4279,
      "##เอ็น": 4280,
      "##เอิญ": 4281,
      "ลุก": 4282,
      "##ธน": 4283,
      "##กันได้": 4284,
      "##หวะ": 4285,
      "##เตฟาน": 4286,
      "Ch": 4287,
      "##ชิน": 4288,
      "##ฝรั่ง": 4289,
      "##มีด": 4290,
      "##้นี่": 4291,
      "ล้าน": 4292,
      "ฮัล": 4293,
      "##ชื่น": 4294,
      "##ินน์": 4295,
      "##อาชญาก": 4296,
      "##สายตา": 4297,
      "##กำจัด": 4298,
      "ยกเว้น": 4299,
      "##อาบ": 4300,
      "##ลาส": 4301,
      "ไปที่": 4302,
      "##คำว่า": 4303,
      "100": 4304,
      "แซ": 4305,
      "##ที่เกิด": 4306,
      "##ในนั้น": 4307,
      "##รองเท้า": 4308,
      "know": 4309,
      "##ศิล": 4310,
      "##ab": 4311,
      "##ไม่ไหว": 4312,
      "##ทีเดียว": 4313,
      "##หรือว่า": 4314,
      "##ครั้งนี้": 4315,
      "ว่าฉัน": 4316,
      "ดูเหมือนว่า": 4317,
      "##พิจารณา": 4318,
      "ตรวจ": 4319,
      "##จาค": 4320,
      "##องการ": 4321,
      "##เธท": 4322,
      "##ต้องมี": 4323,
      "##เคยเห็น": 4324,
      "##ใช้มัน": 4325,
      "##ผิดหวัง": 4326,
      "##โลกนี้": 4327,
      "##พี่น้อง": 4328,
      "##ขนม": 4329,
      "##เผชิญ": 4330,
      "an": 4331,
      "##จอห์น": 4332,
      "##กับพวก": 4333,
      "##กันแน่": 4334,
      "##ครั้งสุดท้าย": 4335,
      "##เรื่อยๆ": 4336,
      "ฉันไม่มี": 4337,
      "##ไม่ได้รับ": 4338,
      "this": 4339,
      "##อป": 4340,
      "##ri": 4341,
      "##ที่จริง": 4342,
      "ตอนนี้ฉัน": 4343,
      "นำ": 4344,
      "##gm": 4345,
      "##uck": 4346,
      "##อนด์": 4347,
      "##ในบ้าน": 4348,
      "##อาชีพ": 4349,
      "ฉันไม่คิดว่า": 4350,
      "##ก่อนหน้า": 4351,
      "##เหลือเกิน": 4352,
      "สม": 4353,
      "##ดุ": 4354,
      "##โส": 4355,
      "และนี่": 4356,
      "##ตัวอย่าง": 4357,
      "ถ้าหาก": 4358,
      "##ข้อตกลง": 4359,
      "##เนียล": 4360,
      "##ธนาคาร": 4361,
      "##มาเพื่อ": 4362,
      "##อะไรไหม": 4363,
      "เขารู้": 4364,
      "##เชื่อเลย": 4365,
      "##ถอน": 4366,
      "##๊อก": 4367,
      "ผมชอบ": 4368,
      "ใช่เลย": 4369,
      "##ใช่อ": 4370,
      "##เนเธง": 4371,
      "##บาป": 4372,
      "แต่นาย": 4373,
      "##ลักษณ์": 4374,
      "##ปัญญา": 4375,
      "##เอล": 4376,
      "ฉันไม่สามารถ": 4377,
      "เลือด": 4378,
      "##คนอื่นๆ": 4379,
      "##ช่วงเวลา": 4380,
      "##ชด": 4381,
      "##สละ": 4382,
      "##อยู่คนเดียว": 4383,
      "##กันอยู่": 4384,
      "##ess": 4385,
      "##ปรากฏ": 4386,
      "##AR": 4387,
      "##ในนี้": 4388,
      "##ธิบดี": 4389,
      "ปัญ": 4390,
      "##ล้อม": 4391,
      "##เธ": 4392,
      "##าระ": 4393,
      "##อะไรที่": 4394,
      "##กับใคร": 4395,
      "เราควร": 4396,
      "##ประเภท": 4397,
      "เป็นการ": 4398,
      "##แก่เขา": 4399,
      "##ภารกิจ": 4400,
      "kgm": 4401,
      "อรุณ": 4402,
      "##จีน": 4403,
      "เธอน": 4404,
      "##ขอให้": 4405,
      "##เท่าไร": 4406,
      "##เนเธฒเธ": 4407,
      "หวังว่า": 4408,
      "##ถูกล": 4409,
      "##ฟิ": 4410,
      "##ไม่ได้นะ": 4411,
      "ทำไมนาย": 4412,
      "##and": 4413,
      "##มากกว่านี้": 4414,
      "ข่าว": 4415,
      "ลุง": 4416,
      "##ั": 4417,
      "##จรร": 4418,
      "##พาน": 4419,
      "##พิว": 4420,
      "##เปลี่ยนไป": 4421,
      "บอกฉัน": 4422,
      "##ก้น": 4423,
      "##ภาว": 4424,
      "ไม่สามารถ": 4425,
      "##เดล": 4426,
      "##เฉิน": 4427,
      "กู": 4428,
      "##บ่าว": 4429,
      "##ฉันเอง": 4430,
      "##นั้นแหละ": 4431,
      "##ความสัมพันธ์": 4432,
      "##มิตร": 4433,
      "ขอโทษครับ": 4434,
      "##ทรยศ": 4435,
      "##จังเลย": 4436,
      "น่าจะ": 4437,
      "##มิน": 4438,
      "##ละคร": 4439,
      "##รู้ว่าคุณ": 4440,
      "##ดนตรี": 4441,
      "##เวลาน": 4442,
      "##ศาสนา": 4443,
      "##เกียจ": 4444,
      "สัญญา": 4445,
      "##รุ": 4446,
      "##ไส": 4447,
      "##งี้": 4448,
      "ฉันเลย": 4449,
      "##เกง": 4450,
      "##อีกต่อไป": 4451,
      "##ทีวี": 4452,
      "มาเถอะ": 4453,
      "##าน่าจะ": 4454,
      "##๊ง": 4455,
      "อาหาร": 4456,
      "##จบลง": 4457,
      "##ศรัทธาต่อ": 4458,
      "##เธฑเธ": 4459,
      "แห": 4460,
      "##มื้อ": 4461,
      "##ว่าไง": 4462,
      "##เราไม่": 4463,
      "##เดี่ยว": 4464,
      "##เนเธฒ": 4465,
      "##รัฐบาล": 4466,
      "##ประทับใจ": 4467,
      "##ที่เกิดขึ้น": 4468,
      "##ของผู้": 4469,
      "คุณคือ": 4470,
      "ผมจะไม่": 4471,
      "##มากเกินไป": 4472,
      "อยู่น": 4473,
      "นายก็": 4474,
      "##าร์ก": 4475,
      "##ใต้ดิน": 4476,
      "##อภัยโทษ": 4477,
      "เพราะงั้น": 4478,
      "##ลี่ย์": 4479,
      "##ส่วนใหญ่": 4480,
      "ตัด": 4481,
      "##้วิ": 4482,
      "##างเกง": 4483,
      "##ตัวเขา": 4484,
      "##คงเป็น": 4485,
      "##ยังไงบ้าง": 4486,
      "หน่วย": 4487,
      "แฟน": 4488,
      "not": 4489,
      "##โฟ": 4490,
      "##IN": 4491,
      "##ทำเป็น": 4492,
      "##ปรก": 4493,
      "##บริจาค": 4494,
      "##เธอกำลัง": 4495,
      "อาจารย์": 4496,
      "ทำไมคุณไม่": 4497,
      "##พิวเตอร์": 4498,
      "Sh": 4499,
      "ทิ้ง": 4500,
      "##ชำ": 4501,
      "##na": 4502,
      "##นี้มัน": 4503,
      "##แล้วไง": 4504,
      "##วิล": 4505,
      "##พบกัน": 4506,
      "ขอบคุณครับ": 4507,
      "##รูปแบบ": 4508,
      "##หมาป่า": 4509,
      "##ีล": 4510,
      "##ไปดู": 4511,
      "##รอาน": 4512,
      "##บอกเขา": 4513,
      "##ตายไปแล้ว": 4514,
      "##สังหาร": 4515,
      "##พนัน": 4516,
      "##ทา": 4517,
      "##ปู่": 4518,
      "##ทำยังไง": 4519,
      "และสิ่งที่": 4520,
      "cH": 4521,
      "โน": 4522,
      "##รอน": 4523,
      "##มอร์": 4524,
      "##ก็ยัง": 4525,
      "##อย่างแน่นอน": 4526,
      "##ด้วยตัวเอง": 4527,
      "##ภาพบุรุษ": 4528,
      "##FFFFFF": 4529,
      "cHFFFFFF": 4530,
      "ยา": 4531,
      "แล": 4532,
      "##ว่ามี": 4533,
      "##สาเหตุ": 4534,
      "##ปฏิบัติตาม": 4535,
      "##ฉาก": 4536,
      "##อยู่บ้าน": 4537,
      "##ุกเฉิน": 4538,
      "##ทางเลือก": 4539,
      "##สำหรับคุณ": 4540,
      "##ว่าคุณจะ": 4541,
      "##ขี่": 4542,
      "##โองการ": 4543,
      "##แหวน": 4544,
      "เกือบ": 4545,
      "##แถวนี้": 4546,
      "##คคล": 4547,
      "##ถัง": 4548,
      "##ไม่ใช่เหรอ": 4549,
      "##มือถือ": 4550,
      "##่องรอย": 4551,
      "##ออกไปจากที่นี่": 4552,
      "อรุณสวัสดิ์": 4553,
      "with": 4554,
      "##ที่พวกเจ้า": 4555,
      "##ญาติ": 4556,
      "ลูกรัก": 4557,
      "เย้": 4558,
      "และใน": 4559,
      "##รายชื่อ": 4560,
      "##ลำพัง": 4561,
      "ยู": 4562,
      "##ล่วง": 4563,
      "คุณช่วย": 4564,
      "นี่คุณ": 4565,
      "ก็ดี": 4566,
      "ทำไมล่ะ": 4567,
      "##ชัค": 4568,
      "##ain": 4569,
      "##ฉันต้อง": 4570,
      "##กันนะ": 4571,
      "เขายัง": 4572,
      "เพราะผม": 4573,
      "##พอที่จะ": 4574,
      "##ould": 4575,
      "##โชค": 4576,
      "##นอง": 4577,
      "##ศัก": 4578,
      "##เก้า": 4579,
      "##ไว้แล้ว": 4580,
      "##หมายความ": 4581,
      "##ลาก": 4582,
      "##แวะ": 4583,
      "##เขารู้": 4584,
      "##ไปก่อน": 4585,
      "##ิดหน่อย": 4586,
      "เจ๋ง": 4587,
      "##กรุณ": 4588,
      "##เล็กซ์": 4589,
      "##กำแพง": 4590,
      "ฝ่าบาท": 4591,
      "ไล": 4592,
      "##อยู่ในห้อง": 4593,
      "ยังไม่": 4594,
      "##กลางวัน": 4595,
      "แฟรง": 4596,
      "##ข่ม": 4597,
      "##เพลิง": 4598,
      "##ตลอดไป": 4599,
      "##อร่อย": 4600,
      "##แคร์": 4601,
      "##จรรย์": 4602,
      "พบ": 4603,
      "##คู": 4604,
      "##หุ่น": 4605,
      "ฉันนึก": 4606,
      "##ฉันไม่": 4607,
      "เอล": 4608,
      "##ปรึก": 4609,
      "##รอบๆ": 4610,
      "แม้แต่": 4611,
      "##รบกวน": 4612,
      "##วิทยาศาสตร์": 4613,
      "ฮัลโหล": 4614,
      "##แล้วครับ": 4615,
      "##กรณี": 4616,
      "##ปล้น": 4617,
      "##สงสาร": 4618,
      "##น้องสาว": 4619,
      "##าธิบดี": 4620,
      "ฉันคง": 4621,
      "##อยู่ดี": 4622,
      "##แต่งตัว": 4623,
      "##บรรดาผู้ศรัทธา": 4624,
      "##เฟอร์": 4625,
      "##กุรอาน": 4626,
      "##คริสต์": 4627,
      "##อุ่น": 4628,
      "##ฝ่า": 4629,
      "##อก่อน": 4630,
      "##พูดเรื่องอะไร": 4631,
      "นายคิดว่า": 4632,
      "##สถ์": 4633,
      "11": 4634,
      "นิค": 4635,
      "##หาน": 4636,
      "##ฉุกเฉิน": 4637,
      "##ขุด": 4638,
      "ฉันแค่อยาก": 4639,
      "คุณคง": 4640,
      "##คนใหม่": 4641,
      "##สูตร": 4642,
      "โดยเฉพาะ": 4643,
      "หยุดนะ": 4644,
      "##ภูเขา": 4645,
      "##สังเกต": 4646,
      "ชิ": 4647,
      "เหร": 4648,
      "##เชอร์": 4649,
      "##พวกเขาจะ": 4650,
      "##เท็จ": 4651,
      "เอ็ม": 4652,
      "##สำหรับการ": 4653,
      "##เครียด": 4654,
      "ลูกสาว": 4655,
      "สร้าง": 4656,
      "##ือย": 4657,
      "##ไม่มีความ": 4658,
      "##เจอคุณ": 4659,
      "แถม": 4660,
      "คอย": 4661,
      "##จอง": 4662,
      "##พำ": 4663,
      "##ฟิล": 4664,
      "##น่ากลัว": 4665,
      "##แฮม": 4666,
      "##อยู่อ": 4667,
      "And": 4668,
      "คุณคิด": 4669,
      "##ถึงได้": 4670,
      "##เวณ": 4671,
      "##เทียม": 4672,
      "##ต่อต้าน": 4673,
      "จะมี": 4674,
      "##รีน่า": 4675,
      "##ี้ยน": 4676,
      "##หมู่ชน": 4677,
      "จอร์": 4678,
      "##ฉันเลย": 4679,
      "##ทั้งวัน": 4680,
      "ยินดีที่ได้": 4681,
      "ค่า": 4682,
      "##ปิ": 4683,
      "##นั้นเป็น": 4684,
      "ถ้ามัน": 4685,
      "##เสียชีวิต": 4686,
      "เป็นคน": 4687,
      "##สองสาม": 4688,
      "มาเร็ว": 4689,
      "##ไฟฟ้า": 4690,
      "##แข็งแรง": 4691,
      "##สืบสวน": 4692,
      "##ห่วย": 4693,
      "แล้วเจอกัน": 4694,
      "##ที่ถูกต้อง": 4695,
      "##จะเอา": 4696,
      "##ามือ": 4697,
      "##ครู่": 4698,
      "เพิ่ง": 4699,
      "##กลางคืน": 4700,
      "##สัมผัส": 4701,
      "โธ่": 4702,
      "เหรียญ": 4703,
      "ชม": 4704,
      "ยอม": 4705,
      "ลิน": 4706,
      "##ที่ว่า": 4707,
      "##ฉันด้วย": 4708,
      "##รอัน": 4709,
      "##เจอเธอ": 4710,
      "บางคน": 4711,
      "อัลลอฮฺ": 4712,
      "ก็น": 4713,
      "##สต์": 4714,
      "##แร": 4715,
      "##พฤ": 4716,
      "##ไปสู่": 4717,
      "##เยี่ยมมาก": 4718,
      "สามารถ": 4719,
      "ให้ตายสิ": 4720,
      "มนุษย์": 4721,
      "##ถอย": 4722,
      "##โอน": 4723,
      "##ที่มา": 4724,
      "##เธเธ": 4725,
      "และมี": 4726,
      "ฉันไม่ใช่": 4727,
      "เลือก": 4728,
      "โดน": 4729,
      "##โปรดปราน": 4730,
      "##วิธีการ": 4731,
      "อด": 4732,
      "โก": 4733,
      "##ดึก": 4734,
      "##โน้": 4735,
      "##หนะ": 4736,
      "##หายตัวไป": 4737,
      "##แจ็ค": 4738,
      "##ยกเลิก": 4739,
      "##เบิร์ต": 4740,
      "##ณฑ์": 4741,
      "##ฬิกา": 4742,
      "##มากที่สุด": 4743,
      "เจอกัน": 4744,
      "เป็นไงบ้าง": 4745,
      "It": 4746,
      "##ซาก": 4747,
      "##สับสน": 4748,
      "##แวน": 4749,
      "##ฟา": 4750,
      "##กล่ะ": 4751,
      "##คำแนะนำ": 4752,
      "##ข้างหน้า": 4753,
      "##เกี่ยวกับการ": 4754,
      "##็อต": 4755,
      "##ที่แท้จริง": 4756,
      "##เธ": 4757,
      "##ตัวคุณ": 4758,
      "เราสามารถ": 4759,
      "##แกะ": 4760,
      "เจส": 4761,
      "เจค": 4762,
      "##รู้ว่าฉัน": 4763,
      "พวกเขากำลัง": 4764,
      "ชาร์ลี": 4765,
      "บ๊": 4766,
      "อาร์": 4767,
      "##ื้อน": 4768,
      "##มาร์": 4769,
      "##เขายัง": 4770,
      "##ลอส": 4771,
      "##เธเธต": 4772,
      "##อำเภ": 4773,
      "##สังคม": 4774,
      "เคน": 4775,
      "##วอล": 4776,
      "##ที่ข้า": 4777,
      "##ได้ชัด": 4778,
      "คุณยัง": 4779,
      "ไม่อยาก": 4780,
      "##เดร": 4781,
      "##เข้าร่วม": 4782,
      "##ลงมือ": 4783,
      "##ตนาการ": 4784,
      "นั่งลง": 4785,
      "18": 4786,
      "นึก": 4787,
      "##มู": 4788,
      "##งี่เง่า": 4789,
      "##ได้เห็น": 4790,
      "##ไปอีก": 4791,
      "##จากความ": 4792,
      "##อย่างมาก": 4793,
      "##หล่อ": 4794,
      "##หมายเลข": 4795,
      "##ดาบ": 4796,
      "ผู้คน": 4797,
      "##เป็นผู้หญิง": 4798,
      "พี่ชาย": 4799,
      "ne": 4800,
      "##กริ": 4801,
      "ฉันเอง": 4802,
      "##ต่อหน้า": 4803,
      "##ชื่ออะไร": 4804,
      "##แย้ง": 4805,
      "ผมไม่เคย": 4806,
      "##บังเอิญ": 4807,
      "##แค่นั้น": 4808,
      "##เสริม": 4809,
      "##ล็อค": 4810,
      "เพราะคุณ": 4811,
      "งั้นเหรอ": 4812,
      "##ต้นไม้": 4813,
      "##ไร้สาระ": 4814,
      "##กรุณา": 4815,
      "สามี": 4816,
      "อายุ": 4817,
      "##ชัน": 4818,
      "##๊ป": 4819,
      "##ให้การ": 4820,
      "เพื่อที่จะ": 4821,
      "เธอคิดว่า": 4822,
      "เขาต้อง": 4823,
      "##ใครบางคน": 4824,
      "##แม่มด": 4825,
      "##บริการ": 4826,
      "แต่นี่": 4827,
      "##แนวทาง": 4828,
      "โย": 4829,
      "##มีเวลา": 4830,
      "##อยู่ใกล้": 4831,
      "เราจะไม่": 4832,
      "##พูดกับ": 4833,
      "##เทียบ": 4834,
      "##เธอกลับ": 4835,
      "##est": 4836,
      "เหยื่อ": 4837,
      "สบาย": 4838,
      "##ัข": 4839,
      "##ที่ทำให้": 4840,
      "##อะไรมั้ย": 4841,
      "##ด้วยเหรอ": 4842,
      "##เรื่องราว": 4843,
      "##ซะหน่อย": 4844,
      "##เช่นนี้": 4845,
      "ตรงนี้": 4846,
      "##ตะวันออก": 4847,
      "##ล่อ": 4848,
      "##เวย": 4849,
      "##แต่น": 4850,
      "แม่ง": 4851,
      "สิ": 4852,
      "##ละเม": 4853,
      "พ่อแม่": 4854,
      "สวย": 4855,
      "##สตรี": 4856,
      "##มาว่า": 4857,
      "##ความสำเร็จ": 4858,
      "##เน": 4859,
      "##ก่อนนะ": 4860,
      "อาทิตย์": 4861,
      "##ออฟฟ": 4862,
      "##ีม": 4863,
      "##ไม่เชื่อ": 4864,
      "##มาเลย": 4865,
      "##เทพ": 4866,
      "ฉันคิดว่าฉัน": 4867,
      "##พลังงาน": 4868,
      "ลา": 4869,
      "##ฟุต": 4870,
      "##ที่เห็น": 4871,
      "##หนา": 4872,
      "##แบบไหน": 4873,
      "ขอโทษที": 4874,
      "##อยู่ข้างนอก": 4875,
      "##พำนัก": 4876,
      "##ซอง": 4877,
      "##ul": 4878,
      "ผมเคย": 4879,
      "##วิเศษ": 4880,
      "ก็ไม่": 4881,
      "##หน่อยได้ไหม": 4882,
      "##เพราะว่า": 4883,
      "##เธฒเธก": 4884,
      "ถือ": 4885,
      "##อพ": 4886,
      "##โผล": 4887,
      "##st": 4888,
      "มันเหมือน": 4889,
      "##โยง": 4890,
      "##ทะเลาะ": 4891,
      "คราว": 4892,
      "ซาร่า": 4893,
      "##ที่เจ้า": 4894,
      "ฉันคิด": 4895,
      "และเจ้า": 4896,
      "##ความทรงจำ": 4897,
      "##่อยู่": 4898,
      "##ล่ะก็": 4899,
      "##ไม่ใช่คน": 4900,
      "##คืนมา": 4901,
      "##บุญ": 4902,
      "##กองทัพ": 4903,
      "##คุณนะ": 4904,
      "##หนิ": 4905,
      "คุณเป็นคน": 4906,
      "##ัวร์": 4907,
      "##เค้ก": 4908,
      "##จริงจัง": 4909,
      "ไปเถอะ": 4910,
      "##พบกับ": 4911,
      "##คล้าย": 4912,
      "##กุม": 4913,
      "##ป้า": 4914,
      "##ไม่คิดว่า": 4915,
      "คุณควร": 4916,
      "มีการ": 4917,
      "##แทง": 4918,
      "##ใดๆ": 4919,
      "##คลื่น": 4920,
      "เวร": 4921,
      "เนื่อง": 4922,
      "by": 4923,
      "##ไปกับ": 4924,
      "##เนส": 4925,
      "##รับใช้": 4926,
      "##สิ่งที่เรา": 4927,
      "สวัสดีค่ะ": 4928,
      "##การ์ด": 4929,
      "พลัง": 4930,
      "พอล": 4931,
      "##ห้ง": 4932,
      "##มันมา": 4933,
      "ผมรู้สึก": 4934,
      "##สิ่งนั้น": 4935,
      "##บางส่วน": 4936,
      "##แค่นี้": 4937,
      "can": 4938,
      "จิม": 4939,
      "##ไม่ถึง": 4940,
      "##เขากลับ": 4941,
      "แล้วฉันก็": 4942,
      "##เรื่องของ": 4943,
      "##รวาล": 4944,
      "ของคุณ": 4945,
      "##ะฮ์": 4946,
      "ชุด": 4947,
      "##แว": 4948,
      "คุณแน่ใจ": 4949,
      "##เวท": 4950,
      "##เห็นด้วย": 4951,
      "##รักษ": 4952,
      "##ไม่มีทางเลือก": 4953,
      "เหลือ": 4954,
      "มอร์แกน": 4955,
      "was": 4956,
      "ไท": 4957,
      "แล้วมัน": 4958,
      "##ตอนเช้า": 4959,
      "สิ่งที่คุณ": 4960,
      "##น้องชาย": 4961,
      "##ผูก": 4962,
      "##อีกคน": 4963,
      "ขอบคุณนะ": 4964,
      "##งั้นหรอ": 4965,
      "##สาธาร": 4966,
      "สวัสดีครับ": 4967,
      "##ก่อการ": 4968,
      "##โหด": 4969,
      "##ประชาชน": 4970,
      "##้วิธี": 4971,
      "##มุ": 4972,
      "##ly": 4973,
      "##ฤดู": 4974,
      "##เถียง": 4975,
      "ผมไม่อยาก": 4976,
      "00": 4977,
      "up": 4978,
      "##ก้อน": 4979,
      "##ที่ทำ": 4980,
      "##เรอะ": 4981,
      "ออกจาก": 4982,
      "##สะด": 4983,
      "##เส้นทาง": 4984,
      "ใจเย็นๆ": 4985,
      "##อาร์": 4986,
      "##ว่าย": 4987,
      "ไม่เอา": 4988,
      "##เช่า": 4989,
      "##ชัดแจ้ง": 4990,
      "##ไปจากที่นี่": 4991,
      "##ล้มเหลว": 4992,
      "##ซื่อสัตย์": 4993,
      "##อาบน้ำ": 4994,
      "แบล": 4995,
      "##วี่": 4996,
      "##ฟบี": 4997,
      "อย่าไป": 4998,
      "##ญากับ": 4999,
      "##รวย": 5000,
      "##ปวง": 5001,
      "##BI": 5002,
      "##ก็ไม่ได้": 5003,
      "##ผมไป": 5004,
      "##ติก": 5005,
      "##ขอร้อง": 5006,
      "##ห้องน้ำ": 5007,
      "out": 5008,
      "##มัส": 5009,
      "##าท": 5010,
      "##ยิ้ม": 5011,
      "##ake": 5012,
      "##แล้วนี่": 5013,
      "##อย่างดี": 5014,
      "##เบียร์": 5015,
      "##ชั่วร้าย": 5016,
      "คุณรู้มั้ย": 5017,
      "##สวนสวรรค์": 5018,
      "##กลุ่มชน": 5019,
      "นอน": 5020,
      "##ฮา": 5021,
      "##เป็นไปได้": 5022,
      "เพลง": 5023,
      "##แก่เจ้า": 5024,
      "##ate": 5025,
      "##พักผ่อน": 5026,
      "แต่ง": 5027,
      "##ซึ้ง": 5028,
      "ปัญหา": 5029,
      "ตอบ": 5030,
      "##ลัด": 5031,
      "##สั้น": 5032,
      "##ฝูง": 5033,
      "และพวกเจ้า": 5034,
      "##เธอนะ": 5035,
      "##ล่าสุด": 5036,
      "##เอาน": 5037,
      "##คลั่ง": 5038,
      "##one": 5039,
      "มันก็แค่": 5040,
      "ยัย": 5041,
      "##บวน": 5042,
      "##ได้บ้าง": 5043,
      "และความ": 5044,
      "##รู้มั้ย": 5045,
      "ใช่สิ": 5046,
      "##เวลาแล้ว": 5047,
      "ตอนนั้น": 5048,
      "##พบว่า": 5049,
      "##สำหรับฉัน": 5050,
      "##น้ำมัน": 5051,
      "เข้าไป": 5052,
      "##ได้ยินเสียง": 5053,
      "##โบสถ์": 5054,
      "##เดาว่า": 5055,
      "##ฟรี": 5056,
      "##ak": 5057,
      "##เขากำลัง": 5058,
      "ฉันสามารถ": 5059,
      "##และการ": 5060,
      "##ชาญ": 5061,
      "##เนเธ": 5062,
      "##อ่อนแอ": 5063,
      "##เป็นยังไงบ้าง": 5064,
      "ใกล้": 5065,
      "##นั้นคือ": 5066,
      "จะไม่": 5067,
      "จากการ": 5068,
      "##โกะ": 5069,
      "ระบบ": 5070,
      "##ัศจรรย์": 5071,
      "##กษัตริย์": 5072,
      "##บับ": 5073,
      "##ทาร": 5074,
      "ไม่ๆ": 5075,
      "##ร่วมมือ": 5076,
      "เด็กๆ": 5077,
      "##แข็งแกร่ง": 5078,
      "เผื่อ": 5079,
      "25": 5080,
      "##ตาล": 5081,
      "##เป็นแค่": 5082,
      "##ระบุ": 5083,
      "##นักเรียน": 5084,
      "##กฏหมาย": 5085,
      "ช่าย": 5086,
      "##รู้ไหม": 5087,
      "##ใช้งาน": 5088,
      "##สิ่งที่เกิดขึ้น": 5089,
      "##ลิฟ": 5090,
      "พวกเขากล่าวว่า": 5091,
      "##แก้แค้น": 5092,
      "##ยุค": 5093,
      "กว่า": 5094,
      "##ราน": 5095,
      "##แห้ง": 5096,
      "##ดาย": 5097,
      "##อะไรมา": 5098,
      "##สินค้า": 5099,
      "##โรคจิต": 5100,
      "##อำเภอ": 5101,
      "St": 5102,
      "##ชู": 5103,
      "##ment": 5104,
      "##หมั้น": 5105,
      "และผู้ใด": 5106,
      "แล้วเรา": 5107,
      "##เวทย์": 5108,
      "##ไม่มีการ": 5109,
      "##ฆ่าตัวตาย": 5110,
      "บางอย่าง": 5111,
      "##บ้าๆ": 5112,
      "##ผ่านไป": 5113,
      "##แย่มาก": 5114,
      "นี่ไง": 5115,
      "##อาจารย์": 5116,
      "##ไม่รู้หรอก": 5117,
      "##นิค": 5118,
      "##ใกล้ชิด": 5119,
      "##มวล": 5120,
      "##ประเด็น": 5121,
      "##รู้ว่ามัน": 5122,
      "##ข่าวดี": 5123,
      "##ประวัติศาสตร์": 5124,
      "สงสัย": 5125,
      "กอง": 5126,
      "##องเจ": 5127,
      "##เหรอครับ": 5128,
      "##เห็นมัน": 5129,
      "ภาพ": 5130,
      "##คัด": 5131,
      "##วกว่า": 5132,
      "คุณดู": 5133,
      "##เวีย": 5134,
      "##หลายปี": 5135,
      "##รายละเอียด": 5136,
      "##เต้นรำ": 5137,
      "##รักษาความปลอดภัย": 5138,
      "แปลก": 5139,
      "##ฝีมือ": 5140,
      "##ร่องรอย": 5141,
      "##เนี้": 5142,
      "##ะไร": 5143,
      "##ดาน": 5144,
      "##ขืน": 5145,
      "##ia": 5146,
      "##เหง": 5147,
      "ผมเสียใจ": 5148,
      "##จากนั้น": 5149,
      "##พูดเรื่อง": 5150,
      "ในฐานะ": 5151,
      "##เคลื่อนไหว": 5152,
      "##ละเมิด": 5153,
      "##ื้ม": 5154,
      "##กูล": 5155,
      "##หามัน": 5156,
      "##เลี่ยง": 5157,
      "##ในเมือง": 5158,
      "##หรี่": 5159,
      "อย่างไร": 5160,
      "##แมว": 5161,
      "##ร่วมกัน": 5162,
      "กลับมา": 5163,
      "##เช้านี้": 5164,
      "##เต็มไปด้วย": 5165,
      "##บำบัด": 5166,
      "ได": 5167,
      "##ดีแล้ว": 5168,
      "ผมทำ": 5169,
      "##เบร": 5170,
      "##กระนั้นหรือ": 5171,
      "##ist": 5172,
      "ทีม": 5173,
      "ทัน": 5174,
      "ภรรยา": 5175,
      "อู": 5176,
      "##จ์": 5177,
      "##จี้": 5178,
      "##บอด": 5179,
      "##ุญแจ": 5180,
      "ไม่ค่ะ": 5181,
      "##หมู": 5182,
      "##อยู่ด้วย": 5183,
      "##หาญ": 5184,
      "เมือง": 5185,
      "##มนตร์": 5186,
      "##พวกเขามี": 5187,
      "##เนเธ": 5188,
      "คอน": 5189,
      "แหม": 5190,
      "##ห่า": 5191,
      "##ได้อีก": 5192,
      "คุณไป": 5193,
      "##เจอกับ": 5194,
      "แต่ไม่": 5195,
      "แต่มันก็": 5196,
      "##อยากรู้": 5197,
      "##ข้างหลัง": 5198,
      "##เล่นเกม": 5199,
      "##รำลึกถึง": 5200,
      "##ราก": 5201,
      "##ra": 5202,
      "##ของเค้า": 5203,
      "##กับพ่อ": 5204,
      "ที่เธอ": 5205,
      "##ไม่ได้เลย": 5206,
      "##่านาย": 5207,
      "##เวียน": 5208,
      "##เพื่อให้": 5209,
      "อย่าเพิ่ง": 5210,
      "##ปกปิด": 5211,
      "อีกอย่าง": 5212,
      "##ทั่วไป": 5213,
      "##ขวด": 5214,
      "##หมวก": 5215,
      "ไปหา": 5216,
      "##ิจฉ": 5217,
      "##ภาคี": 5218,
      "##ก่อการร้าย": 5219,
      "ไซ": 5220,
      "##หุ้น": 5221,
      "##ทอม": 5222,
      "##เป็นสิ่งที่": 5223,
      "##เล่ม": 5224,
      "##มันซะ": 5225,
      "และพระองค์": 5226,
      "##เทป": 5227,
      "##คิดว่าคุณ": 5228,
      "เรื่องนี้": 5229,
      "##ลักษณะ": 5230,
      "ล้อ": 5231,
      "##ึเปล่า": 5232,
      "##se": 5233,
      "##ที่ใช้": 5234,
      "##ให้ใคร": 5235,
      "คุณรู้จัก": 5236,
      "##็กซี่": 5237,
      "เบอร์": 5238,
      "กลับไป": 5239,
      "##คอมพิวเตอร์": 5240,
      "##ลึ": 5241,
      "##ตอ": 5242,
      "##แพร": 5243,
      "##พัฒ": 5244,
      "##ถุ": 5245,
      "##ไปทั่ว": 5246,
      "ไม่ครับ": 5247,
      "##เวร": 5248,
      "##ฆ่าเธอ": 5249,
      "##คลาย": 5250,
      "##ตลอดกาล": 5251,
      "##พร้อมกับ": 5252,
      "have": 5253,
      "##บิด": 5254,
      "##เจ้าของ": 5255,
      "นายกำลัง": 5256,
      "##ไว้ที่": 5257,
      "##ฆ่าฉัน": 5258,
      "##ซักอย่าง": 5259,
      "##บรน": 5260,
      "แค่นั้น": 5261,
      "##เก็ต": 5262,
      "##ย้อน": 5263,
      "##คัส": 5264,
      "##หาง": 5265,
      "##ตาร": 5266,
      "##ผสม": 5267,
      "##เธเธ": 5268,
      "##เลื่อน": 5269,
      "##ในที่": 5270,
      "เอ็ด": 5271,
      "##เสียเวลา": 5272,
      "ดูแล": 5273,
      "หลังจากที่": 5274,
      "##ฟบีไอ": 5275,
      "พิ": 5276,
      "ยืน": 5277,
      "##ro": 5278,
      "##กันและ": 5279,
      "แล้วฉัน": 5280,
      "##เรียกร": 5281,
      "บอกว่า": 5282,
      "##สอบสวน": 5283,
      "##ยิ่งกว่า": 5284,
      "##หยิบ": 5285,
      "##เปรียบ": 5286,
      "จี": 5287,
      "บาร์": 5288,
      "ผิด": 5289,
      "##าา": 5290,
      "##ทุ่ม": 5291,
      "##ามั้ย": 5292,
      "เพิ่ม": 5293,
      "##กลับไปที่": 5294,
      "##เบาะ": 5295,
      "##สมุด": 5296,
      "##ศักดิ์": 5297,
      "ฆา": 5298,
      "อิ": 5299,
      "##คเกอร์": 5300,
      "##ub": 5301,
      "##เธ": 5302,
      "คุณบอกว่า": 5303,
      "##ผมได้": 5304,
      "##ตัวเธอ": 5305,
      "แล้วจะ": 5306,
      "##ครั้งที่": 5307,
      "หนุ่ม": 5308,
      "เดอะ": 5309,
      "##เข้าใจผิด": 5310,
      "##ที่เราได้": 5311,
      "##สะกด": 5312,
      "##ประธานาธิบดี": 5313,
      "are": 5314,
      "บี": 5315,
      "อิน": 5316,
      "##ออน": 5317,
      "##สิง": 5318,
      "##ช่วยอะไร": 5319,
      "##มีความหมาย": 5320,
      "ด้วยการ": 5321,
      "แต่นั่น": 5322,
      "รับทราบ": 5323,
      "##เปนเซอร์": 5324,
      "##โผล่": 5325,
      "ฉะนั้น": 5326,
      "##จ้อง": 5327,
      "##เข็ม": 5328,
      "เราแค่": 5329,
      "เอมิลี่": 5330,
      "##เซนต์": 5331,
      "##แมนด้า": 5332,
      "เปิดประตู": 5333,
      "##ดอกไม้": 5334,
      "ปืน": 5335,
      "ยอด": 5336,
      "##ry": 5337,
      "##ี่ป": 5338,
      "##ได้ผล": 5339,
      "##ของเร": 5340,
      "##ต้องมา": 5341,
      "##ินี": 5342,
      "##ร์รี่": 5343,
      "##ไว้นะ": 5344,
      "##ต้องการจะ": 5345,
      "##ทั้งคืน": 5346,
      "เอเลน่า": 5347,
      "##กระดาษ": 5348,
      "##ฟังดู": 5349,
      "แบบว่า": 5350,
      "##ธุระ": 5351,
      "##เลียต": 5352,
      "##ดียิ่ง": 5353,
      "##คณะ": 5354,
      "##ทเธอ": 5355,
      "##ผิน": 5356,
      "ผมอยากจะ": 5357,
      "##เพช": 5358,
      "เขาได้": 5359,
      "##ไมค์": 5360,
      "##ใช่อย่าง": 5361,
      "##ครั้งเดียว": 5362,
      "##ปลุก": 5363,
      "##จังหวะ": 5364,
      "##หมู่ผู้": 5365,
      "##มารับ": 5366,
      "ร้อง": 5367,
      "##เน่": 5368,
      "##ว้ย": 5369,
      "ใช่ค่ะ": 5370,
      "##เซน": 5371,
      "##art": 5372,
      "##ที่เราจะ": 5373,
      "##อยู่กับคุณ": 5374,
      "get": 5375,
      "##วิก": 5376,
      "##ตามล่า": 5377,
      "ยังมี": 5378,
      "##จนถึง": 5379,
      "##มั่นคง": 5380,
      "##หลังจากนั้น": 5381,
      "##จินตนาการ": 5382,
      "##ลาม": 5383,
      "ฉันรัก": 5384,
      "##ฉันว่า": 5385,
      "##ฉันเป็น": 5386,
      "##ไว้ก่อน": 5387,
      "##ทำอะไรอยู่": 5388,
      "##ิตี้": 5389,
      "##พี่สาว": 5390,
      "##เวย์": 5391,
      "all": 5392,
      "เถ": 5393,
      "##ริน": 5394,
      "##ใหม": 5395,
      "##นม": 5396,
      "##เธช": 5397,
      "##มาให้ฉัน": 5398,
      "##รับมือ": 5399,
      "##คิดว่ามัน": 5400,
      "##ปรุง": 5401,
      "##บ้างมั้ย": 5402,
      "##ิต้า": 5403,
      "##ong": 5404,
      "##อเมริกัน": 5405,
      "การ์": 5406,
      "วิค": 5407,
      "##ฝืน": 5408,
      "##ไม่เจอ": 5409,
      "##อย่างยิ่ง": 5410,
      "##มากไป": 5411,
      "##ช่วยเธอ": 5412,
      "จะต้อง": 5413,
      "ฉันไม่เข้าใจ": 5414,
      "เมื่อคืน": 5415,
      "##มิใช่": 5416,
      "##พร้อมแล้ว": 5417,
      "##ซักหน่อย": 5418,
      "หมด": 5419,
      "##รวดเร็ว": 5420,
      "จบ": 5421,
      "ฝัน": 5422,
      "แข": 5423,
      "##มัง": 5424,
      "##บ่าย": 5425,
      "คุณจะไม่": 5426,
      "คุณจะต้อง": 5427,
      "##เสพ": 5428,
      "มาสิ": 5429,
      "##ers": 5430,
      "##ind": 5431,
      "##ood": 5432,
      "บรรดาผู้": 5433,
      "ทรง": 5434,
      "##เจ็ด": 5435,
      "เราไป": 5436,
      "แล้วตอนนี้": 5437,
      "##ไว้ว่า": 5438,
      "หนี": 5439,
      "ผมไม่รู้ว่า": 5440,
      "##ard": 5441,
      "##เธญเธ": 5442,
      "##ะฮฺ": 5443,
      "##กระจาย": 5444,
      "อัลลอฮ์": 5445,
      "แอ": 5446,
      "##ั๊": 5447,
      "##พรร": 5448,
      "##ทาส": 5449,
      "##ทำอย่างนี้": 5450,
      "และไม่": 5451,
      "##เกย์": 5452,
      "เขามา": 5453,
      "##บุคคล": 5454,
      "##เนเธ": 5455,
      "##สมบูรณ์แบบ": 5456,
      "##คือน": 5457,
      "##จะเกิดขึ้น": 5458,
      "ฉันดีใจ": 5459,
      "##เลียน": 5460,
      "เธเธฑ": 5461,
      "##บอกใคร": 5462,
      "##คือใคร": 5463,
      "##ชัดๆ": 5464,
      "##ก็ตามที่": 5465,
      "##ไก่": 5466,
      "##แหล่ง": 5467,
      "##ี่ปุ่น": 5468,
      "มาร": 5469,
      "รี": 5470,
      "เกล": 5471,
      "##ลาน": 5472,
      "##พาก": 5473,
      "ฉันชื่อ": 5474,
      "##ฉันไม่ได้": 5475,
      "##อร์ท": 5476,
      "เราจะได้": 5477,
      "นั่นไง": 5478,
      "เป็นไปได้": 5479,
      "##อาจจะไม่": 5480,
      "##สายลับ": 5481,
      "##ไล่ออก": 5482,
      "##วิทยุ": 5483,
      "##สิ้นสุด": 5484,
      "##สมาชิก": 5485,
      "##ซับซ้อน": 5486,
      "##AN": 5487,
      "##ของหนู": 5488,
      "##ราชา": 5489,
      "##เว้ย": 5490,
      "แทน": 5491,
      "##ก็ได้นะ": 5492,
      "##คุยกับคุณ": 5493,
      "##เคลียร์": 5494,
      "หัวใจ": 5495,
      "##ชะมัด": 5496,
      "##ลักพาตัว": 5497,
      "ข้อมูล": 5498,
      "##มุฮัมมัด": 5499,
      "##ของชั้น": 5500,
      "##ฉันสิ": 5501,
      "ผมบอก": 5502,
      "##เราไป": 5503,
      "มันแค่": 5504,
      "##พิธี": 5505,
      "##ang": 5506,
      "##ุบัน": 5507,
      "##วรรษ": 5508,
      "ch": 5509,
      "ขวบ": 5510,
      "น่ะ": 5511,
      "หย": 5512,
      "ใบ": 5513,
      "##เธ": 5514,
      "##เขียว": 5515,
      "##มันไม่ได้": 5516,
      "##อยู่เลย": 5517,
      "##นั้นมี": 5518,
      "##ทางเดียว": 5519,
      "##ผลิต": 5520,
      "เดวิด": 5521,
      "##รู้สึกว่า": 5522,
      "##ลายเป็น": 5523,
      "##แสดงความ": 5524,
      "วินาที": 5525,
      "##ชั้นฟ้าทั้งหลาย": 5526,
      "##เด็ดขาด": 5527,
      "ท่า": 5528,
      "##มูล": 5529,
      "##คอล": 5530,
      "##คิว": 5531,
      "##เธก": 5532,
      "ฉันควร": 5533,
      "ฉันพยายาม": 5534,
      "##ให้มี": 5535,
      "##ไมเคิล": 5536,
      "ลุกขึ้น": 5537,
      "##ING": 5538,
      "สตี": 5539,
      "##ไน": 5540,
      "##็ป": 5541,
      "##ได้ถูก": 5542,
      "##เร็": 5543,
      "##ในวันนี้": 5544,
      "##ผมนะ": 5545,
      "##สิ่งที่ผม": 5546,
      "มันเป็นการ": 5547,
      "##oug": 5548,
      "##เพิ่งจะ": 5549,
      "น่ารัก": 5550,
      "เร็วๆ": 5551,
      "##ห่างจาก": 5552,
      "##จำนวนมาก": 5553,
      "สต": 5554,
      "แคร": 5555,
      "แต่อ": 5556,
      "##วุ่น": 5557,
      "##เขาเป็น": 5558,
      "##อะไรน่ะ": 5559,
      "##นี่เป็น": 5560,
      "##เนิด": 5561,
      "##ดูว่า": 5562,
      "##เอส": 5563,
      "ฟังดู": 5564,
      "##ชัยชนะ": 5565,
      "14": 5566,
      "##ไวน์": 5567,
      "##คุณไม่": 5568,
      "##มานะ": 5569,
      "##จริงๆนะ": 5570,
      "##ข้างล่าง": 5571,
      "หลังจากนั้น": 5572,
      "16": 5573,
      "ช้า": 5574,
      "นายมี": 5575,
      "##ช่วยได้": 5576,
      "##เอ็ม": 5577,
      "##เบา": 5578,
      "##แปด": 5579,
      "##หย่า": 5580,
      "##ราชินี": 5581,
      "##ปรึกษา": 5582,
      "กำ": 5583,
      "##ให้หมด": 5584,
      "##ราณ": 5585,
      "##เข้าสู่": 5586,
      "##สำนึก": 5587,
      "##จำไม่ได้": 5588,
      "โอเคไหม": 5589,
      "##ผลัก": 5590,
      "##ปกครอง": 5591,
      "ประตู": 5592,
      "ไมล์": 5593,
      "##จารย์": 5594,
      "##พระองค์ทรงประสงค์": 5595,
      "สุดยอด": 5596,
      "หนังสือ": 5597,
      "##ให้ฟัง": 5598,
      "เราไม่มี": 5599,
      "ย้าย": 5600,
      "สเตฟาน": 5601,
      "##ดอล": 5602,
      "##เธ": 5603,
      "##ให้เจ้า": 5604,
      "##มากนะ": 5605,
      "##พูดแบบนั้น": 5606,
      "ก็คือ": 5607,
      "มาจาก": 5608,
      "เซอร์": 5609,
      "เข้าใจไหม": 5610,
      "##อเร": 5611,
      "##พนักงาน": 5612,
      "##ove": 5613,
      "##ทำเรื่อง": 5614,
      "##ปรโลก": 5615,
      "เพราะเธอ": 5616,
      "##เป็นคนดี": 5617,
      "##ร่วมเพศ": 5618,
      "เบล": 5619,
      "##เบื้องหลัง": 5620,
      "some": 5621,
      "สู้": 5622,
      "##ซิล": 5623,
      "##ุธ": 5624,
      "##ป้าย": 5625,
      "##นี่นา": 5626,
      "##เรื่องจริง": 5627,
      "โอลิ": 5628,
      "##วิงว": 5629,
      "##เบียน": 5630,
      "##เอาตัว": 5631,
      "##อลิ": 5632,
      "##เกี่ยวข้องกับ": 5633,
      "##วิงวอน": 5634,
      "ฮา": 5635,
      "##วู": 5636,
      "##ฮัน": 5637,
      "##ช": 5638,
      "และแน่นอน": 5639,
      "มันดู": 5640,
      "##โกง": 5641,
      "##ใบหน้า": 5642,
      "อันที่จริง": 5643,
      "##มั่นใจว่า": 5644,
      "##หลอกลวง": 5645,
      "ผมอยากให้คุณ": 5646,
      "##รังเกียจ": 5647,
      "กัปตัน": 5648,
      "##ไบ": 5649,
      "##ที่ที่": 5650,
      "##ที่อยู่ใน": 5651,
      "##่นะ": 5652,
      "มันจะเป็น": 5653,
      "##งานนี้": 5654,
      "##เห็นอะไร": 5655,
      "เป็นผู้": 5656,
      "##เจอเขา": 5657,
      "ควร": 5658,
      "##เกินกว่า": 5659,
      "##บริเวณ": 5660,
      "กลับบ้าน": 5661,
      "รอเดี๋ยว": 5662,
      "##ตั๋ว": 5663,
      "##ภาระ": 5664,
      "don": 5665,
      "##กางเกง": 5666,
      "##ๆนะ": 5667,
      "##เขาไว้": 5668,
      "คุณน่าจะ": 5669,
      "วันที่": 5670,
      "##ไข่": 5671,
      "ราตรี": 5672,
      "เเต่": 5673,
      "บริษัท": 5674,
      "คุ": 5675,
      "ฉันหวัง": 5676,
      "ว่าเธอ": 5677,
      "##หายนะ": 5678,
      "##เปิดประตู": 5679,
      "##ค้นพบ": 5680,
      "##สุนัข": 5681,
      "เหล่า": 5682,
      "##อาชญากรรม": 5683,
      "Oh": 5684,
      "ร้าน": 5685,
      "โช": 5686,
      "ไว": 5687,
      "##ราม": 5688,
      "##ยย": 5689,
      "##กาก": 5690,
      "เรียบ": 5691,
      "ฉันไม่ต้องการ": 5692,
      "ขอโทษค่ะ": 5693,
      "ขอบใจนะ": 5694,
      "##ี่ยวชาญ": 5695,
      "##ook": 5696,
      "ขนาด": 5697,
      "คะ": 5698,
      "ดาว": 5699,
      "##อท": 5700,
      "##ชาน": 5701,
      "##สภา": 5702,
      "##ทุ": 5703,
      "##คุ้น": 5704,
      "##หวาด": 5705,
      "ท่านครับ": 5706,
      "##ุมัติ": 5707,
      "##โน่": 5708,
      "ฉันต้องไป": 5709,
      "##มม่า": 5710,
      "เพียงแค่": 5711,
      "##เธตเนเธ": 5712,
      "นับ": 5713,
      "โล": 5714,
      "##อิก": 5715,
      "##เปีย": 5716,
      "##เรือน": 5717,
      "ฉันพูด": 5718,
      "##ของพระเจ้า": 5719,
      "##นี้ได้": 5720,
      "##ตุ้น": 5721,
      "##บัญชา": 5722,
      "##นิว": 5723,
      "##คนร้าย": 5724,
      "##กับลูก": 5725,
      "อย่างที่": 5726,
      "##เฟีย": 5727,
      "##จ่ายเงิน": 5728,
      "##ขณะนี้": 5729,
      "##อุปกรณ์": 5730,
      "##ime": 5731,
      "##มาช่วย": 5732,
      "เธอทำ": 5733,
      "ไปเลย": 5734,
      "##ักษร": 5735,
      "##ประหลาดใจ": 5736,
      "##เนี้ย": 5737,
      "ขับ": 5738,
      "##มาสิ": 5739,
      "##และความ": 5740,
      "ไม่มีการ": 5741,
      "##คะแนน": 5742,
      "##ด้านหลัง": 5743,
      "##ประสบการณ์": 5744,
      "40": 5745,
      "บิล": 5746,
      "##ซิส": 5747,
      "##ขยาย": 5748,
      "##โว": 5749,
      "##ของอ": 5750,
      "##ในทาง": 5751,
      "##ไม่ได้เป็น": 5752,
      "##ใครสักคน": 5753,
      "เฮนรี่": 5754,
      "##เท่าที่": 5755,
      "##กำเนิด": 5756,
      "เยี่ยมเลย": 5757,
      "เข้าใจมั้ย": 5758,
      "โทรหา": 5759,
      "##มักจะ": 5760,
      "##สกปรก": 5761,
      "กล่าวว่า": 5762,
      "##สั่น": 5763,
      "##เป็นแบบนี้": 5764,
      "คุณโอเค": 5765,
      "##ก็อต": 5766,
      "ที่เขา": 5767,
      "##คุยด้วย": 5768,
      "##ink": 5769,
      "สำหรับการ": 5770,
      "##ทเธอรีน": 5771,
      "ตะ": 5772,
      "โอ๊ย": 5773,
      "##จักรวาล": 5774,
      "อย่างนั้น": 5775,
      "##เชื่อมต่อ": 5776,
      "24": 5777,
      "##ฉะนั้น": 5778,
      "##โว้ย": 5779,
      "##คนไหน": 5780,
      "##ตรัส": 5781,
      "ข้าไม่": 5782,
      "##ชื่อเสียง": 5783,
      "ไม่เป็นไรหรอก": 5784,
      "หนึ่งใน": 5785,
      "สุข": 5786,
      "We": 5787,
      "นัง": 5788,
      "##เธ": 5789,
      "##งานเลี้ยง": 5790,
      "##เตะ": 5791,
      "##ถูกยิง": 5792,
      "##ต่อมา": 5793,
      "##ที่จะทำ": 5794,
      "โดยที่": 5795,
      "##จัดการเอง": 5796,
      "##แผนก": 5797,
      "##สัญญากับ": 5798,
      "กา": 5799,
      "##ให": 5800,
      "##ซิบ": 5801,
      "##ล่ม": 5802,
      "ฉันเป็นคน": 5803,
      "##ดีมั้ย": 5804,
      "##ความสามารถ": 5805,
      "##สำนักงาน": 5806,
      "##สาวๆ": 5807,
      "พระเจ้าช่วย": 5808,
      "what": 5809,
      "##ื้อก": 5810,
      "##เธณ": 5811,
      "##พัฒนา": 5812,
      "แปล": 5813,
      "##สอด": 5814,
      "##her": 5815,
      "##ฅเนเธง": 5816,
      "##ที่สำคัญ": 5817,
      "##หลายคน": 5818,
      "##แยะ": 5819,
      "##เครื่องมือ": 5820,
      "##ลิ่น": 5821,
      "##ปัจจัย": 5822,
      "ดึง": 5823,
      "บุ": 5824,
      "##ลอน": 5825,
      "มันอาจจะ": 5826,
      "มีแต่": 5827,
      "##เสร็จแล้ว": 5828,
      "##โบราณ": 5829,
      "##ตะวันตก": 5830,
      "จงกล่าวเถิดมุฮัมมัด": 5831,
      "##ส่วนหนึ่งของ": 5832,
      "วอลเตอร์": 5833,
      "FBI": 5834,
      "so": 5835,
      "รอก่อน": 5836,
      "##ซซ่า": 5837,
      "##ัช": 5838,
      "##สเต": 5839,
      "##ราด": 5840,
      "และนาย": 5841,
      "##ยังชีพ": 5842,
      "##เนเธ": 5843,
      "เขาต้องการ": 5844,
      "##ต่อไปแล้ว": 5845,
      "อะไรน่ะ": 5846,
      "##out": 5847,
      "เนเธ": 5848,
      "เยี่ยมมาก": 5849,
      "หัวเราะ": 5850,
      "##บอน": 5851,
      "##ปีก่อน": 5852,
      "##ฟ์": 5853,
      "##จะหา": 5854,
      "คุณเป็นใคร": 5855,
      "##ีกว่า": 5856,
      "##และแผ่นดิน": 5857,
      "##ทำให้เรา": 5858,
      "##รวบ": 5859,
      "เมื่อคุณ": 5860,
      "##สารภาพ": 5861,
      "##เนเธฒ": 5862,
      "เห็นมั้ย": 5863,
      "##คุ้มกัน": 5864,
      "##ฮีโร่": 5865,
      "##กีฬ": 5866,
      "##ดำเนินการ": 5867,
      "ตลก": 5868,
      "สัญ": 5869,
      "หืม": 5870,
      "##อ้วน": 5871,
      "##กู้": 5872,
      "##ตูด": 5873,
      "##ให้ข้า": 5874,
      "##ให้อภัย": 5875,
      "##มีโอกาส": 5876,
      "##อะไรล่ะ": 5877,
      "นี่แหละ": 5878,
      "##แก่ตัว": 5879,
      "##าลี": 5880,
      "##สุภาพบุรุษ": 5881,
      "##ข้อหา": 5882,
      "##บริหาร": 5883,
      "##เธฑเธ": 5884,
      "##ซักคน": 5885,
      "##อยู่อย่าง": 5886,
      "##ทุกสิ่งทุกอย่าง": 5887,
      "##ัณฑ์": 5888,
      "##้ช": 5889,
      "##ตลาด": 5890,
      "##ิ๊ก": 5891,
      "ฉันเกลียด": 5892,
      "คุณรู้ว่า": 5893,
      "##ยังงั้น": 5894,
      "##สักพัก": 5895,
      "นักสืบ": 5896,
      "##หลงทาง": 5897,
      "got": 5898,
      "มิน": 5899,
      "##ปฎ": 5900,
      "##ถัด": 5901,
      "##ึ้ง": 5902,
      "##นี้ไป": 5903,
      "##มากเลยนะ": 5904,
      "##ถึงเวลา": 5905,
      "##เองนะ": 5906,
      "##เออร์": 5907,
      "กับการ": 5908,
      "##บุตร": 5909,
      "##ว่ายน้ำ": 5910,
      "น้อย": 5911,
      "มาด": 5912,
      "##พริ": 5913,
      "##ถิ่น": 5914,
      "##ฟ้อง": 5915,
      "##ไม่เหมือน": 5916,
      "มันคง": 5917,
      "##เสาร์": 5918,
      "##วิค": 5919,
      "##เห็นคุณ": 5920,
      "##แม่น้ำ": 5921,
      "บอกผม": 5922,
      "##ตะโกน": 5923,
      "##ปัจจุบัน": 5924,
      "ไร้": 5925,
      "##าหล": 5926,
      "##นวย": 5927,
      "##ญี่ปุ่น": 5928,
      "##อะไรนะ": 5929,
      "##อะไรกับ": 5930,
      "##ในตอนนี้": 5931,
      "##แม่ง": 5932,
      "ความรัก": 5933,
      "##กลับมาแล้ว": 5934,
      "อาจจะเป็น": 5935,
      "##สงสัยว่า": 5936,
      "เมอร์ลิน": 5937,
      "BAR": 5938,
      "##ทูต": 5939,
      "##ฎี": 5940,
      "##ให้ลูก": 5941,
      "##เนอะ": 5942,
      "##บางครั้ง": 5943,
      "##แตน": 5944,
      "##สุภาพ": 5945,
      "##พอจะ": 5946,
      "##บรรทุก": 5947,
      "##ต่างกัน": 5948,
      "##ตกอยู่ใน": 5949,
      "##เวิร์ด": 5950,
      "##ศิลปะ": 5951,
      "##ของมนุษย์": 5952,
      "##ระท": 5953,
      "##อนุมัติ": 5954,
      "##เดือด": 5955,
      "แล้วฉันจะ": 5956,
      "แล้วเขาก็": 5957,
      "##คือสิ่งที่": 5958,
      "ใช่ครับ": 5959,
      "##onna": 5960,
      "##เศส": 5961,
      "##หมายถึงอะไร": 5962,
      "ถอยไป": 5963,
      "ปกติ": 5964,
      "ค้น": 5965,
      "รอบ": 5966,
      "##ศ์": 5967,
      "##อยู่ได้": 5968,
      "##รู้ดี": 5969,
      "##เพอร์": 5970,
      "เธอได้": 5971,
      "##เชี่ยวชาญ": 5972,
      "##ถูกส่ง": 5973,
      "##เบิด": 5974,
      "ขอบคุณพระเจ้า": 5975,
      "##สักครู่": 5976,
      "##คู่หู": 5977,
      "##สูงสุด": 5978,
      "##แซน": 5979,
      "โมง": 5980,
      "##กันและกัน": 5981,
      "##เรียกร้อง": 5982,
      "เรียบร้อย": 5983,
      "17": 5984,
      "##จู่": 5985,
      "##บัล": 5986,
      "##ทัก": 5987,
      "##ไม่น่า": 5988,
      "##ได้มั๊ย": 5989,
      "##ไปเถอะ": 5990,
      "##เดอะ": 5991,
      "##รู้สึกยังไง": 5992,
      "##หลายอย่าง": 5993,
      "แฮน": 5994,
      "สาวๆ": 5995,
      "##แตะต้อง": 5996,
      "##เนเธเน": 5997,
      "Come": 5998,
      "ชาว": 5999,
      "อุ": 6000,
      "##มึง": 6001,
      "##วัต": 6002,
      "##ปุ่ม": 6003,
      "##มาดู": 6004,
      "##วิช": 6005,
      "##อลลี่": 6006,
      "แคส": 6007,
      "##วินาที": 6008,
      "##ทำความสะอาด": 6009,
      "##วุ่นวาย": 6010,
      "ตราบ": 6011,
      "เสร": 6012,
      "##ชิง": 6013,
      "##ฉีด": 6014,
      "##จะเริ่ม": 6015,
      "##วกาศ": 6016,
      "##มีบางอย่าง": 6017,
      "คุณพูดถูก": 6018,
      "##เธอมา": 6019,
      "##แคม": 6020,
      "##ลงทุน": 6021,
      "ไม่มีปัญหา": 6022,
      "##ิสัย": 6023,
      "##สารเลว": 6024,
      "##ที่ยิ่ง": 6025,
      "##ขนาดไหน": 6026,
      "โทรศัพท์": 6027,
      "##ฤษฎี": 6028,
      "##จอดรถ": 6029,
      "##สื่อสาร": 6030,
      "เสร็จ": 6031,
      "as": 6032,
      "ด้าน": 6033,
      "##จอม": 6034,
      "##ตาน": 6035,
      "##แคน": 6036,
      "##ที่พ่อ": 6037,
      "##เจค": 6038,
      "##รอม": 6039,
      "เธอเป็นคน": 6040,
      "##เข้าถึง": 6041,
      "##ลาอิก": 6042,
      "ถ้าไม่": 6043,
      "##ิสัน": 6044,
      "##ส่งข้อความ": 6045,
      "##ลิ้น": 6046,
      "จนท": 6047,
      "คำถาม": 6048,
      "##ชะตา": 6049,
      "หมายความว่าไง": 6050,
      "แห่ง": 6051,
      "##สป": 6052,
      "##คร้าย": 6053,
      "##อย่างงั้น": 6054,
      "##ไม่ได้แล้ว": 6055,
      "##เข้าใกล้": 6056,
      "จะเป็น": 6057,
      "##สันต์": 6058,
      "ได้โปรดเถอะ": 6059,
      "##นึกถึง": 6060,
      "##เซ็กส์": 6061,
      "ล้อเล่น": 6062,
      "ซาน": 6063,
      "##ฟอร์ด": 6064,
      "##em": 6065,
      "##เลี่ยน": 6066,
      "##หมุน": 6067,
      "##คนิค": 6068,
      "##จริงเหรอ": 6069,
      "เรย์": 6070,
      "##เซฟ": 6071,
      "##ร่วมงาน": 6072,
      "ฉันรู้ว่าคุณ": 6073,
      "##บอกฉันว่า": 6074,
      "##ปราศ": 6075,
      "just": 6076,
      "กลิ่น": 6077,
      "ปฏ": 6078,
      "##ยักษ์": 6079,
      "##ั๊ก": 6080,
      "##ฉันถึง": 6081,
      "##ก็แค่": 6082,
      "##ควิน": 6083,
      "##ในอีก": 6084,
      "##ความสนใจ": 6085,
      "##เค่": 6086,
      "เพราะมัน": 6087,
      "แท้จริงอัลลอฮฺ": 6088,
      "##เนเธฒเธ": 6089,
      "##มากกว่านั้น": 6090,
      "##อำนวย": 6091,
      "What": 6092,
      "##๊อต": 6093,
      "##อยุ": 6094,
      "และอัลลอฮฺ": 6095,
      "##หรัฐ": 6096,
      "##มากนัก": 6097,
      "##หลีก": 6098,
      "##ต่อเนื่อง": 6099,
      "##เคยทำ": 6100,
      "##ข้างบน": 6101,
      "ดีแล้ว": 6102,
      "##ชมรม": 6103,
      "##เสพติด": 6104,
      "ชา": 6105,
      "สาร": 6106,
      "อือ": 6107,
      "##ีโอ": 6108,
      "##ive": 6109,
      "ฉันกลัว": 6110,
      "##ริช": 6111,
      "แล้วเราก็": 6112,
      "##เน": 6113,
      "##เมล์": 6114,
      "เอ้า": 6115,
      "##หน่อยได้มั้ย": 6116,
      "ตอนที่ฉัน": 6117,
      "แบบนี้": 6118,
      "##หมาด": 6119,
      "ยินดีด้วย": 6120,
      "##ถ่ายรูป": 6121,
      "ว่าไงนะ": 6122,
      "ผมรู้ว่าคุณ": 6123,
      "ดอก": 6124,
      "อลิ": 6125,
      "##รัน": 6126,
      "##ได้อย่าง": 6127,
      "##ละก็": 6128,
      "และพวกเข": 6129,
      "และอย่า": 6130,
      "แต่เป็น": 6131,
      "##คุยกับเขา": 6132,
      "##ภาษณ์": 6133,
      "สนุก": 6134,
      "คู": 6135,
      "มะ": 6136,
      "ฮัน": 6137,
      "##คลอด": 6138,
      "##จะกลับมา": 6139,
      "คุณผู้หญิง": 6140,
      "และได้": 6141,
      "##้านั่น": 6142,
      "##รับรอง": 6143,
      "ก็จง": 6144,
      "ในวัน": 6145,
      "##เชื่อฟัง": 6146,
      "ออกมา": 6147,
      "##ว่ามันจะ": 6148,
      "##ณาจักร": 6149,
      "##อัลกุรอาน": 6150,
      "##ไส้": 6151,
      "##สะดวก": 6152,
      "gonna": 6153,
      "##ข่าย": 6154,
      "##ไปนะ": 6155,
      "ไม่ว่าจะ": 6156,
      "##คนแรก": 6157,
      "##กันใน": 6158,
      "แต่ไม่ใช่": 6159,
      "ที่นาย": 6160,
      "เราเป็น": 6161,
      "อย่าย": 6162,
      "##ทางออก": 6163,
      "##และฉัน": 6164,
      "##น่าสนใจ": 6165,
      "ก็เพราะ": 6166,
      "จะไป": 6167,
      "##สรุป": 6168,
      "##ข้อเสนอ": 6169,
      "##ทราย": 6170,
      "เสื้อ": 6171,
      "เห็นไหม": 6172,
      "##คิ": 6173,
      "##ฉันเหรอ": 6174,
      "##กันว่า": 6175,
      "##สิ่งที่พวกเขา": 6176,
      "ทำไมต้อง": 6177,
      "##ที่คุณต้องการ": 6178,
      "##นานแค่ไหน": 6179,
      "##ตราจารย์": 6180,
      "##นิวยอร์ค": 6181,
      "คดี": 6182,
      "ตก": 6183,
      "##รีย์": 6184,
      "##อักษร": 6185,
      "##ดิต": 6186,
      "##้าส์": 6187,
      "##เอาแต่": 6188,
      "ว่ามัน": 6189,
      "##คืนนั้น": 6190,
      "##ทำงานให้": 6191,
      "No": 6192,
      "ต่าง": 6193,
      "##เขาร": 6194,
      "ฉันมา": 6195,
      "##หมอนั่น": 6196,
      "และทรง": 6197,
      "##กับเพื่อน": 6198,
      "##บอกเรา": 6199,
      "เรือ": 6200,
      "##เอ่อ": 6201,
      "##ตายไป": 6202,
      "##อื่นจาก": 6203,
      "##ทิ้งไว้": 6204,
      "##อัลลอฮ์ทรง": 6205,
      "##เนเธ": 6206,
      "##นิ้วมือ": 6207,
      "ราตรีสวัสดิ์": 6208,
      "ฮ่า": 6209,
      "##ืช": 6210,
      "##ให้เห็น": 6211,
      "##การแสดง": 6212,
      "ผมเลย": 6213,
      "##ริยา": 6214,
      "เขากล่าวว่า": 6215,
      "นั่นก็": 6216,
      "##น่ะค่ะ": 6217,
      "ของฉัน": 6218,
      "หรือไม่ก็": 6219,
      "ll": 6220,
      "จึง": 6221,
      "พัก": 6222,
      "หือ": 6223,
      "องค์": 6224,
      "##ยั้ง": 6225,
      "##พึง": 6226,
      "##ที่แม่": 6227,
      "คุณทำอะไร": 6228,
      "##ราง": 6229,
      "มันไม่มี": 6230,
      "##จากที่นี่": 6231,
      "##ช่วยเขา": 6232,
      "##เป็นคนทำ": 6233,
      "##เป็นผู้ชาย": 6234,
      "##บ้าไปแล้ว": 6235,
      "##ตกหลุม": 6236,
      "บู": 6237,
      "##มห": 6238,
      "##ยาง": 6239,
      "##ลาร์": 6240,
      "##สลาย": 6241,
      "##11": 6242,
      "##ให้คน": 6243,
      "##เล็บ": 6244,
      "ถ้าเป็น": 6245,
      "มีความ": 6246,
      "รู้จัก": 6247,
      "คือว่า": 6248,
      "คือการ": 6249,
      "##ว่าฉันจะ": 6250,
      "##แย่ๆ": 6251,
      "##คริสต์มาส": 6252,
      "right": 6253,
      "ค่อย": 6254,
      "อ่อ": 6255,
      "##เป็นพยาน": 6256,
      "ฉันรู้จัก": 6257,
      "##คุณมา": 6258,
      "และบรรดาผู้": 6259,
      "ผมยัง": 6260,
      "มันจะไม่": 6261,
      "##หาด": 6262,
      "นายไม่": 6263,
      "##แก่พวกท่าน": 6264,
      "##รึป่าว": 6265,
      "##ที่สุดใน": 6266,
      "##อยู่น่ะ": 6267,
      "##เต็มที่": 6268,
      "at": 6269,
      "##กอด": 6270,
      "##ปั้น": 6271,
      "##ปั่น": 6272,
      "##kay": 6273,
      "##ให้แก": 6274,
      "มันยาก": 6275,
      "##ใคร่": 6276,
      "##วันหนึ่ง": 6277,
      "ทำไมเขา": 6278,
      "อย่าลืม": 6279,
      "##ิมะ": 6280,
      "##ine": 6281,
      "##ตาดู": 6282,
      "##็อป": 6283,
      "เหตุผล": 6284,
      "อ่าน": 6285,
      "##มง": 6286,
      "##กส์": 6287,
      "##ด้วยล่ะ": 6288,
      "##คิดอะไร": 6289,
      "นั่นล่ะ": 6290,
      "##ส่อง": 6291,
      "##เก็บของ": 6292,
      "##เธตเน": 6293,
      "ง่าย": 6294,
      "ร่าง": 6295,
      "##ม์": 6296,
      "##ซัง": 6297,
      "##ลาง": 6298,
      "##ข้": 6299,
      "##ว่ายังไง": 6300,
      "##ให้ดู": 6301,
      "และเธอก็": 6302,
      "ผมไป": 6303,
      "มันเกิดขึ้น": 6304,
      "##ตัวฉัน": 6305,
      "ก่อนที่จะ": 6306,
      "มันคืออะไร": 6307,
      "##ภาวะ": 6308,
      "wor": 6309,
      "ฮาร์": 6310,
      "##กัก": 6311,
      "##ุค": 6312,
      "##ฉบับ": 6313,
      "##ec": 6314,
      "##เข่า": 6315,
      "คุณชอบ": 6316,
      "ผมชื่อ": 6317,
      "##สิร์": 6318,
      "##เด่น": 6319,
      "เธอคง": 6320,
      "##จะทำลาย": 6321,
      "##เร็วที่สุด": 6322,
      "ขอโทษด้วย": 6323,
      "##ปิดบัง": 6324,
      "##แต่งงานกับ": 6325,
      "##ast": 6326,
      "##กวาด": 6327,
      "##ายา": 6328,
      "##เรื่องพวกนี้": 6329,
      "##ไมล์": 6330,
      "##อีกไหม": 6331,
      "##จะได้เห็น": 6332,
      "##โมโห": 6333,
      "##สีแดง": 6334,
      "บ้าจริง": 6335,
      "##เชื่อมโยง": 6336,
      "ขณะที่": 6337,
      "##ชำระ": 6338,
      "##เนเธเน": 6339,
      "ห้า": 6340,
      "อ้าว": 6341,
      "โคล": 6342,
      "##กบ": 6343,
      "##หอม": 6344,
      "##แชม": 6345,
      "##ท่อง": 6346,
      "##ปู": 6347,
      "##ff": 6348,
      "##เป็นลูก": 6349,
      "##มีค่า": 6350,
      "##ในรถ": 6351,
      "เขียน": 6352,
      "เราเคย": 6353,
      "##สนอง": 6354,
      "##อื่นใด": 6355,
      "##โคตร": 6356,
      "##กรรมการ": 6357,
      "##ลึกลับ": 6358,
      "##ที่ยิ่งใหญ่": 6359,
      "รอง": 6360,
      "##ซซี่": 6361,
      "##ซาบ": 6362,
      "##ปัง": 6363,
      "##จะถึง": 6364,
      "##ไม่อยู่": 6365,
      "##เราร": 6366,
      "##ละหมาด": 6367,
      "คุณควรจะ": 6368,
      "แล้วเราจะ": 6369,
      "ไปกัน": 6370,
      "##ตรงๆ": 6371,
      "ความคิด": 6372,
      "##อันใด": 6373,
      "ตอนนี้คุณ": 6374,
      "##ัตว์": 6375,
      "##แห่งความ": 6376,
      "##พร้อมที่จะ": 6377,
      "##หลงผิด": 6378,
      "##กล้าหาญ": 6379,
      "น้องชาย": 6380,
      "##ผินหลัง": 6381,
      "อเล็กซ์": 6382,
      "##ออ": 6383,
      "##โมน": 6384,
      "##เป้น": 6385,
      "ฉันหวังว่า": 6386,
      "##เลยครับ": 6387,
      "เธออยาก": 6388,
      "ก็ใช่": 6389,
      "##ใช้ได้": 6390,
      "##ปรี": 6391,
      "##พิพาก": 6392,
      "##ิร์ท": 6393,
      "##บังเกิด": 6394,
      "วิท": 6395,
      "##ภายใต้": 6396,
      "##ริด": 6397,
      "##ยัย": 6398,
      "##ถ่": 6399,
      "คุณพูด": 6400,
      "##เติบ": 6401,
      "ฉันจะทำ": 6402,
      "##แขวน": 6403,
      "ฉันคิดว่าคุณ": 6404,
      "น้องสาว": 6405,
      "คิม": 6406,
      "##ชก": 6407,
      "##ลือ": 6408,
      "##จอ": 6409,
      "##พิน": 6410,
      "##ารา": 6411,
      "##อย่างหนึ่ง": 6412,
      "นี่นาย": 6413,
      "##น้ำแข็ง": 6414,
      "##ร้ายแรง": 6415,
      "##ถามอะไร": 6416,
      "หลัก": 6417,
      "##ทะเบียน": 6418,
      "##ขัดแย้ง": 6419,
      "##เผชิญหน้า": 6420,
      "Hey": 6421,
      "ab": 6422,
      "พัน": 6423,
      "เหน": 6424,
      "##อวกาศ": 6425,
      "##การทำงาน": 6426,
      "##คว้า": 6427,
      "##ริยะ": 6428,
      "##กันดี": 6429,
      "##เน่า": 6430,
      "##เชีย": 6431,
      "จะให้": 6432,
      "##เจออะไร": 6433,
      "##เปลี่ยนใจ": 6434,
      "##ใส่ชุด": 6435,
      "ไอ้หนู": 6436,
      "อีกครั้ง": 6437,
      "##ว่าเธอจะ": 6438,
      "##ว่าเขาจะ": 6439,
      "##จูง": 6440,
      "ผมคิดว่าคุณ": 6441,
      "##แด่": 6442,
      "##ตระกูล": 6443,
      "##ในโลกนี้": 6444,
      "##ประชาชาติ": 6445,
      "##เข้มแข็ง": 6446,
      "##ฝรั่งเศส": 6447,
      "##กีฬา": 6448,
      "ทหาร": 6449,
      "สา": 6450,
      "##ุภาพ": 6451,
      "##เขาก": 6452,
      "##เขาแล้ว": 6453,
      "##ต้องใช้": 6454,
      "ผมแค่อยาก": 6455,
      "##รู้ว่าเธอ": 6456,
      "##สิ่งที่เธอ": 6457,
      "##ซะแล้ว": 6458,
      "สิ่งที่ฉัน": 6459,
      "##จ่ายค่า": 6460,
      "##คาดหวัง": 6461,
      "##ฝ่าฝืน": 6462,
      "no": 6463,
      "รัฐ": 6464,
      "##จุ": 6465,
      "##20": 6466,
      "##คนใด": 6467,
      "และยัง": 6468,
      "มันทำให้": 6469,
      "มันเหมือนกับ": 6470,
      "##เสือ": 6471,
      "##คิดจะ": 6472,
      "##เว็บ": 6473,
      "นายเป็น": 6474,
      "##เห็นเธอ": 6475,
      "##เครดิต": 6476,
      "##มายุ่ง": 6477,
      "##สุขภาพ": 6478,
      "##แบลร์": 6479,
      "##ปฏิบัติการ": 6480,
      "ภายใน": 6481,
      "อึ": 6482,
      "##มัว": 6483,
      "##ซัส": 6484,
      "##บิล": 6485,
      "##เราม": 6486,
      "##อย่างเดียว": 6487,
      "##ุกร์": 6488,
      "##ไม่ได้ทำ": 6489,
      "##เจ้านาย": 6490,
      "เขาคง": 6491,
      "มีปัญหา": 6492,
      "เจสัน": 6493,
      "##ส่วนมาก": 6494,
      "##ทรวง": 6495,
      "ถ้าคุณไม่": 6496,
      "ดูนี่สิ": 6497,
      "บท": 6498,
      "##จิม": 6499,
      "##วัว": 6500,
      "##ั้นเมื่อ": 6501,
      "##ทำนอง": 6502,
      "แต่ข้า": 6503,
      "เธอคือ": 6504,
      "ขอเวลา": 6505,
      "เส้น": 6506,
      "##คุยกับเธอ": 6507,
      "##มาที่นี่เพื่อ": 6508,
      "##กดดัน": 6509,
      "##จมูก": 6510,
      "อดัม": 6511,
      "##ปวงบ่าว": 6512,
      "หญ": 6513,
      "##อัต": 6514,
      "##ใย": 6515,
      "##เสิร์": 6516,
      "##ของเด็ก": 6517,
      "คุณมา": 6518,
      "และมันก็": 6519,
      "##อะไรเกี่ยวกับ": 6520,
      "##วิเคราะห์": 6521,
      "##อีกนะ": 6522,
      "##ทุกคนที่": 6523,
      "##แผนที่": 6524,
      "อาจเป็น": 6525,
      "##สวยมาก": 6526,
      "##เก่าๆ": 6527,
      "##ที่เกิดเหตุ": 6528,
      "แบลร์": 6529,
      "##รวบรวม": 6530,
      "##าหลี": 6531,
      "มาร์ค": 6532,
      "หัน": 6533,
      "เดา": 6534,
      "ไบ": 6535,
      "##ทึ่ง": 6536,
      "##ทัศ": 6537,
      "##็อบ": 6538,
      "##็อบบี้": 6539,
      "##่อัลลอฮ": 6540,
      "ไม่ๆๆ": 6541,
      "##มันเลย": 6542,
      "และเป็น": 6543,
      "##มากแค่ไหน": 6544,
      "##อีกเหรอ": 6545,
      "##วันหยุด": 6546,
      "เอามัน": 6547,
      "##ยาบ": 6548,
      "เดี๋ยวฉัน": 6549,
      "ผมไม่คิดว่า": 6550,
      "พวกเราจะ": 6551,
      "##ออกจากที่นี่": 6552,
      "##ไอ้นี่": 6553,
      "##สบายใจ": 6554,
      "##สัมภาษณ์": 6555,
      "##มหาลัย": 6556,
      "เถอะ": 6557,
      "ซา": 6558,
      "##สวด": 6559,
      "##คาม": 6560,
      "##บรู": 6561,
      "##คุณอยู่": 6562,
      "##หนทาง": 6563,
      "คุณเข้าใจ": 6564,
      "ไม่ล่ะ": 6565,
      "ไม่อยากจะ": 6566,
      "##ในฐานะ": 6567,
      "ที่นั่น": 6568,
      "เขาทำ": 6569,
      "เป็นเรื่อง": 6570,
      "อย่าทำ": 6571,
      "งั้นคุณ": 6572,
      "ผู้ที่": 6573,
      "##พาคุณ": 6574,
      "ใครก็ได้": 6575,
      "##แสบ": 6576,
      "##อร่า": 6577,
      "##หลบหนี": 6578,
      "ถนน": 6579,
      "ั": 6580,
      "##ศก": 6581,
      "##อร์ต": 6582,
      "เอิ่ม": 6583,
      "##มีความคิด": 6584,
      "##ไปที่ไหน": 6585,
      "##อย่าได้": 6586,
      "##ทารก": 6587,
      "##เติบโต": 6588,
      "ถอด": 6589,
      "ใต้": 6590,
      "##จาน": 6591,
      "##ฉี่": 6592,
      "ฉันว่าฉัน": 6593,
      "##มีแต่": 6594,
      "##ต้องหา": 6595,
      "และบรรดาผู้ที่": 6596,
      "แล้วเขา": 6597,
      "เธอต้องการ": 6598,
      "เอาน่า": 6599,
      "##ที่จะเป็น": 6600,
      "ได้เวลา": 6601,
      "##ทั้งหมดนี้": 6602,
      "##เพราะฉัน": 6603,
      "เห็นได้ชัด": 6604,
      "##แบก": 6605,
      "ฉันทำไม่ได้": 6606,
      "##เนเธกเน": 6607,
      "like": 6608,
      "##พฤติ": 6609,
      "In": 6610,
      "ชู่": 6611,
      "บันทึก": 6612,
      "##สหรัฐ": 6613,
      "##ue": 6614,
      "##ock": 6615,
      "##ํา": 6616,
      "##ที่ห้อง": 6617,
      "##ว่าเกิดอะไรขึ้น": 6618,
      "##มีลูก": 6619,
      "##กับความ": 6620,
      "##กันล่ะ": 6621,
      "##รัสเซีย": 6622,
      "here": 6623,
      "ยาน": 6624,
      "ร่วม": 6625,
      "##จัย": 6626,
      "##ต่อย": 6627,
      "##ที่ทำงาน": 6628,
      "##ว่าการ": 6629,
      "คุณทำได้": 6630,
      "และไม่มี": 6631,
      "##อร์รี่": 6632,
      "ที่ได้": 6633,
      "##ออกแบบ": 6634,
      "ก็เลย": 6635,
      "##ที่คุณจะ": 6636,
      "##ปีเตอร์": 6637,
      "##คดีนี้": 6638,
      "##ore": 6639,
      "##แผนการ": 6640,
      "##own": 6641,
      "กลุ่ม": 6642,
      "แดนนี่": 6643,
      "##เร็วๆนี้": 6644,
      "##ดาร่อซูล": 6645,
      "##แพร่": 6646,
      "13": 6647,
      "ดอล": 6648,
      "##เร็ง": 6649,
      "##แล้วค่ะ": 6650,
      "คุณจำ": 6651,
      "##ผู้ต้องสงสัย": 6652,
      "##อยู่ในหมู่ผู้": 6653,
      "บางทีคุณ": 6654,
      "ถึงเวลา": 6655,
      "ไอ้บ้า": 6656,
      "##สะพาน": 6657,
      "##เนเธซ": 6658,
      "##itt": 6659,
      "ทันที": 6660,
      "เทร": 6661,
      "##เด้": 6662,
      "##ธา": 6663,
      "##ขำ": 6664,
      "และสำหรับ": 6665,
      "และอัลลอฮ์นั้น": 6666,
      "แต่เมื่อ": 6667,
      "เราทำ": 6668,
      "เธอไป": 6669,
      "แก้": 6670,
      "##ปีที่แล้ว": 6671,
      "ใครจะ": 6672,
      "แฟรงค์": 6673,
      "ดีกว่า": 6674,
      "##ซิน": 6675,
      "##ศุกร์": 6676,
      "##เลิศ": 6677,
      "##จากคุณ": 6678,
      "ในเมื่อ": 6679,
      "##ตอนที่แล้ว": 6680,
      "ดูนั่น": 6681,
      "##โทรกลับ": 6682,
      "##เครือ": 6683,
      "ความเดิม": 6684,
      "##ที่ฉันจะ": 6685,
      "##แสวง": 6686,
      "##อยู่นั่น": 6687,
      "##โจร": 6688,
      "##ของข้าพระองค์": 6689,
      "##โหลด": 6690,
      "สาวน้อย": 6691,
      "##เวลานาน": 6692,
      "com": 6693,
      "##สกี้": 6694,
      "ฉันสัญญา": 6695,
      "##มีส่วน": 6696,
      "คุณมาทำอะไรที่นี่": 6697,
      "เราจะทำ": 6698,
      "##วิจัย": 6699,
      "##นายพล": 6700,
      "เจ็บ": 6701,
      "##จำกัด": 6702,
      "##ออกไปข้างนอก": 6703,
      "##แห่งการ": 6704,
      "##แก้ปัญหา": 6705,
      "##ความผิดพลาด": 6706,
      "ข้อความ": 6707,
      "##ออฟฟิศ": 6708,
      "วี": 6709,
      "แรง": 6710,
      "##ซาร่า": 6711,
      "##ลด์": 6712,
      "##ตวรรษ": 6713,
      "##ven": 6714,
      "##ว่ามันเป็น": 6715,
      "##ฉันแล้ว": 6716,
      "##รู้แล้ว": 6717,
      "แต่การ": 6718,
      "เธอดู": 6719,
      "##เชียร์": 6720,
      "##เองก็": 6721,
      "##ทุกที่": 6722,
      "##ตำนาน": 6723,
      "##ดอกหรือ": 6724,
      "โรงเรียน": 6725,
      "ต้น": 6726,
      "มู": 6727,
      "เล่า": 6728,
      "##แฝ": 6729,
      "##พุ่ง": 6730,
      "##ท่อ": 6731,
      "##ถ้วน": 6732,
      "##ick": 6733,
      "##ที่เคย": 6734,
      "##เป็นพ่อ": 6735,
      "##ฉันไว้": 6736,
      "ไม่น่า": 6737,
      "##ในเวลา": 6738,
      "##อย่างน้อย": 6739,
      "แล้วเธอก็": 6740,
      "ขอบคุณสำหรับ": 6741,
      "##ดินแดน": 6742,
      "##เธอกับ": 6743,
      "แม้ว่า": 6744,
      "##eah": 6745,
      "##สาธารณะ": 6746,
      "##มังกร": 6747,
      "สุขสันต์": 6748,
      "ซัก": 6749,
      "พี": 6750,
      "ศพ": 6751,
      "##จะไม่ได้": 6752,
      "##ไม่สนใจ": 6753,
      "##การะ": 6754,
      "##กันหมด": 6755,
      "##บอกนาย": 6756,
      "##าวุธ": 6757,
      "##ลูกๆ": 6758,
      "เจมส์": 6759,
      "ได้ครับ": 6760,
      "ฉันไม่อยากจะ": 6761,
      "##อยู่ในนี้": 6762,
      "##มนตรี": 6763,
      "##รู้สึกเหมือน": 6764,
      "##ลิ้ม": 6765,
      "##ดีกว่านี้": 6766,
      "เด็กซ์": 6767,
      "คุณไม่สามารถ": 6768,
      "##แดด": 6769,
      "##thing": 6770,
      "วิธีการ": 6771,
      "ปรับ": 6772,
      "##ยี": 6773,
      "##จุน": 6774,
      "##หยิ่ง": 6775,
      "##พัด": 6776,
      "##พอล": 6777,
      "##ถ้วย": 6778,
      "##ั้ว": 6779,
      "ผมเพิ่ง": 6780,
      "##เพล": 6781,
      "เขาอาจจะ": 6782,
      "##เวที": 6783,
      "##คำสาป": 6784,
      "##พยพ": 6785,
      "##เซิล": 6786,
      "##สักนิด": 6787,
      "บอกมา": 6788,
      "ระเบิด": 6789,
      "ครั้นเมื่อ": 6790,
      "หลบ": 6791,
      "ที่จริงแล้ว": 6792,
      "##เซ็นต์": 6793,
      "##ครอบครอง": 6794,
      "##ารีส": 6795,
      "##ฟุตบอล": 6796,
      "##พืช": 6797,
      "##ฟู": 6798,
      "##การตาย": 6799,
      "##าน่ะ": 6800,
      "##นี่คือ": 6801,
      "##อย่างหนัก": 6802,
      "##ตัวจริง": 6803,
      "เราทุกคน": 6804,
      "##เทน": 6805,
      "##ไว้ให้": 6806,
      "##กระตุ้น": 6807,
      "##จับตัว": 6808,
      "##เธฑเธเธ": 6809,
      "##ความคิดที่ดี": 6810,
      "ทะ": 6811,
      "สัตว์": 6812,
      "##ยง": 6813,
      "##กเธต": 6814,
      "##ng": 6815,
      "##เลี่ยม": 6816,
      "##ขึ้นอยู่กับ": 6817,
      "##มั้ยล่ะ": 6818,
      "##เอาชนะ": 6819,
      "โอเคมั้ย": 6820,
      "##รู้วิธี": 6821,
      "แมค": 6822,
      "##โง่ๆ": 6823,
      "##เกมส์": 6824,
      "##กระจก": 6825,
      "รายงาน": 6826,
      "หายใจ": 6827,
      "##ตาราง": 6828,
      "สี่": 6829,
      "ฮะ": 6830,
      "##ลีน": 6831,
      "##ไม่อยากให้": 6832,
      "ฉันคือ": 6833,
      "##ียล": 6834,
      "##มาชิก": 6835,
      "และเขาก็": 6836,
      "##ผมมา": 6837,
      "มันถูก": 6838,
      "แต่มี": 6839,
      "##มากแล้ว": 6840,
      "เธอเคย": 6841,
      "##เมิน": 6842,
      "##พูดคุย": 6843,
      "##ตามที่": 6844,
      "##เบค": 6845,
      "เอาหล่ะ": 6846,
      "##หลังคา": 6847,
      "##ร่วมกับ": 6848,
      "##ชั่วคราว": 6849,
      "##เนเธฅ": 6850,
      "##มหาวิทยาลัย": 6851,
      "ve": 6852,
      "สเปนเซอร์": 6853,
      "ะฐ": 6854,
      "##ชุ": 6855,
      "##ธยม": 6856,
      "ไม่จริง": 6857,
      "และข้า": 6858,
      "ผมคง": 6859,
      "##ในช่วง": 6860,
      "##คิดอย่างนั้น": 6861,
      "##ช่วยผม": 6862,
      "##หญ้า": 6863,
      "ฉันไม่สน": 6864,
      "เพราะเขา": 6865,
      "เอาไป": 6866,
      "##เครื่องดื่ม": 6867,
      "ตกลงไหม": 6868,
      "one": 6869,
      "พระองค์ทรง": 6870,
      "##ก่อนหน้านี้": 6871,
      "500": 6872,
      "want": 6873,
      "วา": 6874,
      "##นิ่ง": 6875,
      "##ท้า": 6876,
      "##คนไข้": 6877,
      "##อะไรทั้งนั้น": 6878,
      "ที่เป็น": 6879,
      "##เหรอว่า": 6880,
      "##เช็ด": 6881,
      "##แก๊": 6882,
      "##อีกเลย": 6883,
      "##ช่วยให้": 6884,
      "##าร์ม": 6885,
      "##กระโดด": 6886,
      "เมื่อวาน": 6887,
      "##จะทำได้": 6888,
      "ครับท่าน": 6889,
      "##มายังพวกเขา": 6890,
      "คาร์ล": 6891,
      "##๊อค": 6892,
      "##ครว": 6893,
      "##ความจำ": 6894,
      "##จากฉัน": 6895,
      "ขอฉัน": 6896,
      "ไม่ใช่แค่": 6897,
      "##นำมา": 6898,
      "เราจะต้อง": 6899,
      "##นานแล้ว": 6900,
      "##จัดการกับ": 6901,
      "##โน้น": 6902,
      "คิดถึง": 6903,
      "##ิร์ล": 6904,
      "##ร้านอาหาร": 6905,
      "##แลกเปลี่ยน": 6906,
      "##บันได": 6907,
      "อยู่นี่": 6908,
      "##เก้าอี้": 6909,
      "ฟิล": 6910,
      "##ยืม": 6911,
      "##ัวก": 6912,
      "##ที่ไม่มี": 6913,
      "##เรากลับ": 6914,
      "##เธถ": 6915,
      "##มันแล้ว": 6916,
      "##เลยค่ะ": 6917,
      "แล้วพวกเขาก็": 6918,
      "ถ้าอย่างนั้น": 6919,
      "##น่ะครับ": 6920,
      "ของเรา": 6921,
      "##พิธ": 6922,
      "##เนเธญ": 6923,
      "##เตรียมตัว": 6924,
      "##จะได้รับการ": 6925,
      "ซูซาน": 6926,
      "พวกเจ้าจง": 6927,
      "##พิพากษา": 6928,
      "He": 6929,
      "ดัน": 6930,
      "##ี๊ย": 6931,
      "##ิ้ว": 6932,
      "##ๆก็": 6933,
      "##ไปเอง": 6934,
      "##ในแผ่นดิน": 6935,
      "##ผมเอง": 6936,
      "##นี่แหละ": 6937,
      "ทำให้ฉัน": 6938,
      "ฉันไม่ชอบ": 6939,
      "ว่าเขา": 6940,
      "##เพราะคุณ": 6941,
      "##ยอมแพ้": 6942,
      "##สีดำ": 6943,
      "##ดำรง": 6944,
      "##เสน่ห์": 6945,
      "##ขัดขวาง": 6946,
      "##บุกรุก": 6947,
      "##เบาะแส": 6948,
      "พื้น": 6949,
      "โอกาส": 6950,
      "##รุ่ง": 6951,
      "##ซวย": 6952,
      "##พาย": 6953,
      "##ap": 6954,
      "##เลส": 6955,
      "##เขาว่า": 6956,
      "##มันเถอะ": 6957,
      "##ในความ": 6958,
      "##ในเรื่อง": 6959,
      "##ริม": 6960,
      "##ความหวัง": 6961,
      "นี่เธอ": 6962,
      "##ที่จะได้": 6963,
      "มาเลย": 6964,
      "##ติดี": 6965,
      "##รีส": 6966,
      "##ผู้หญิงคนนั้น": 6967,
      "##แก้ตัว": 6968,
      "##ครวญ": 6969,
      "อาการ": 6970,
      "##อริ": 6971,
      "##กั้น": 6972,
      "##ก้อ": 6973,
      "##คลาส": 6974,
      "##ไม่ไป": 6975,
      "ฉันกำลังจะ": 6976,
      "##หมอนี่": 6977,
      "แต่พวกเขา": 6978,
      "แล้วนี่": 6979,
      "##ดูหน่อย": 6980,
      "##ล่าร์": 6981,
      "##เห็นเขา": 6982,
      "##ครับท่าน": 6983,
      "##หน้าอก": 6984,
      "##น่าจะเป็น": 6985,
      "##เสียสละ": 6986,
      "##ตามมา": 6987,
      "เมื่อฉัน": 6988,
      "##หายไปไหน": 6989,
      "##พาเธอ": 6990,
      "##ผู้หญิงที่": 6991,
      "อืมมม": 6992,
      "##เก็บไว้": 6993,
      "##แสงสว่าง": 6994,
      "##อยู่อีก": 6995,
      "##ปรีชา": 6996,
      "สะ": 6997,
      "##จ้า": 6998,
      "##ไม่ทำ": 6999,
      "##ากร": 7000,
      "##เขามาก": 7001,
      "##้วง": 7002,
      "##เป็นแม่": 7003,
      "คุณไม่เคย": 7004,
      "ผมรักคุณ": 7005,
      "พวกแก": 7006,
      "##นายจะ": 7007,
      "##งานที่": 7008,
      "##ต่อการ": 7009,
      "เอามา": 7010,
      "##end": 7011,
      "หมอบ": 7012,
      "##อีกล่ะ": 7013,
      "##ตัวก": 7014,
      "de": 7015,
      "##ยื่น": 7016,
      "##คณ": 7017,
      "##พายุ": 7018,
      "##ุ้": 7019,
      "##เป่า": 7020,
      "ฉันเจอ": 7021,
      "ฉันบอกว่า": 7022,
      "##เหี้ย": 7023,
      "##ตัวเลือก": 7024,
      "แล้วมันก็": 7025,
      "##ลงใน": 7026,
      "##ทุกครั้ง": 7027,
      "##พระองค์จะทรง": 7028,
      "##เยอะแยะ": 7029,
      "##กุล": 7030,
      "##เนเธซ": 7031,
      "##มูซา": 7032,
      "ขวา": 7033,
      "โต": 7034,
      "##บัส": 7035,
      "##โศก": 7036,
      "##เธ": 7037,
      "##เหว": 7038,
      "##ดีไหม": 7039,
      "และโดย": 7040,
      "##กับเด็ก": 7041,
      "เรเชล": 7042,
      "ว่าผม": 7043,
      "อย่าให้": 7044,
      "อย่าขยับ": 7045,
      "โอเคนะ": 7046,
      "##ชอบมัน": 7047,
      "ดูซิ": 7048,
      "##ถามคุณ": 7049,
      "##สะสม": 7050,
      "##หมู่บ้าน": 7051,
      "แจ๊ค": 7052,
      "กลัว": 7053,
      "##เรียบร้อยแล้ว": 7054,
      "แถว": 7055,
      "##รษฐ": 7056,
      "ป้า": 7057,
      "ปีก่อน": 7058,
      "##ดังนั้น": 7059,
      "##ฟาก": 7060,
      "##man": 7061,
      "##ไม่ถูก": 7062,
      "##ั้นเหรอ": 7063,
      "##ดีนี่": 7064,
      "##ความเจ็บปวด": 7065,
      "เธญ": 7066,
      "##วิชา": 7067,
      "##เว่น": 7068,
      "ในห้อง": 7069,
      "##ทำให้เกิด": 7070,
      "##ถ้าฉัน": 7071,
      "ตอนนี้ผม": 7072,
      "##รีด": 7073,
      "##เดินไป": 7074,
      "##คาญ": 7075,
      "พอได้แล้ว": 7076,
      "##ชื่นชม": 7077,
      "โกหก": 7078,
      "แสง": 7079,
      "##ึม": 7080,
      "##ฆษ": 7081,
      "ฉันควรจะ": 7082,
      "##อยู่ตรง": 7083,
      "และเพื่อ": 7084,
      "##ในปี": 7085,
      "##หลอน": 7086,
      "##กำลังมา": 7087,
      "ฉันไม่เป็นไร": 7088,
      "##เชื่อมั่น": 7089,
      "พ่อคะ": 7090,
      "##อยู่ที่บ้าน": 7091,
      "##ห่างๆ": 7092,
      "ตรวจสอบ": 7093,
      "การ์เซีย": 7094,
      "##ปรีชาญาณ": 7095,
      "##สระ": 7096,
      "##นัง": 7097,
      "##ในที่สุด": 7098,
      "##กับข้า": 7099,
      "##กับเรื่องนี้": 7100,
      "##ตัวเลข": 7101,
      "##ี่ย์": 7102,
      "ถ้าเกิด": 7103,
      "ทำตัว": 7104,
      "##คิดว่าเธอ": 7105,
      "เป็นไปไม่ได้": 7106,
      "##ควรจะเป็น": 7107,
      "##พระเจ้าของพวกเขา": 7108,
      "##ation": 7109,
      "ออกไปจาก": 7110,
      "อยากได้": 7111,
      "##ซ่อนตัว": 7112,
      "##กิยาม": 7113,
      "##รัด": 7114,
      "##ฉีก": 7115,
      "##ire": 7116,
      "##ที่นั่ง": 7117,
      "##ไม่ทัน": 7118,
      "ฉันเอา": 7119,
      "##ทำอาหาร": 7120,
      "##คนตาย": 7121,
      "ผมไม่มี": 7122,
      "##เกาหลี": 7123,
      "##่อย่า": 7124,
      "เขาอาจ": 7125,
      "##หาเธอ": 7126,
      "##อยากให้คุณ": 7127,
      "##งานปาร์ตี้": 7128,
      "##เทคนิค": 7129,
      "เป้า": 7130,
      "ในขณะที่": 7131,
      "แมรี่": 7132,
      "##บรรดาผู้ปฏิเสธศรัทธา": 7133,
      "##ไอเดีย": 7134,
      "พอแล้ว": 7135,
      "##เมตตาเสมอ": 7136,
      "##เร็วกว่า": 7137,
      "รหัส": 7138,
      "ละ": 7139,
      "สัปดาห์": 7140,
      "โคร": 7141,
      "##อิจฉ": 7142,
      "##มามาก": 7143,
      "##คี": 7144,
      "##ถ่วง": 7145,
      "##nt": 7146,
      "##ah": 7147,
      "##จะเห็น": 7148,
      "##มีอำนาจ": 7149,
      "##พวกแก": 7150,
      "##ใจเย็น": 7151,
      "แล้วใคร": 7152,
      "##เชย": 7153,
      "##อีกต่อไปแล้ว": 7154,
      "##ทั้งสองคน": 7155,
      "ดีเลย": 7156,
      "##น้ำหนัก": 7157,
      "##ตาบอด": 7158,
      "ความรู้สึก": 7159,
      "##เครื่องหมาย": 7160,
      "##ยกโทษ": 7161,
      "##มาร่วม": 7162,
      "##วิ่งหนี": 7163,
      "จอร์จ": 7164,
      "##อพาร์ท": 7165,
      "คราวนี้": 7166,
      "##ชั้นฟ้าทั้งหลายและแผ่นดิน": 7167,
      "##ระทบ": 7168,
      "หญิง": 7169,
      "หรอ": 7170,
      "##สไต": 7171,
      "##น้า": 7172,
      "##คาย": 7173,
      "##ุส": 7174,
      "##ศตวรรษ": 7175,
      "##ที่พัก": 7176,
      "##เป๋": 7177,
      "##ังไง": 7178,
      "ฉันคิดถึง": 7179,
      "คุณอาจจะ": 7180,
      "##ใจฉัน": 7181,
      "##ผู้เป็นเจ้า": 7182,
      "เรียน": 7183,
      "##ต่อรอง": 7184,
      "##ที่จะให้": 7185,
      "##เสียดาย": 7186,
      "ในช่วง": 7187,
      "##สิ่งที่เขา": 7188,
      "ข้าแต่": 7189,
      "##ิกิ": 7190,
      "##โรไลน์": 7191,
      "เราต้องไป": 7192,
      "##กำกับ": 7193,
      "##แฮะ": 7194,
      "เเล้ว": 7195,
      "##เธอน่ะ": 7196,
      "##ปัจจัยยังชีพ": 7197,
      "ความเดิมตอนที่แล้ว": 7198,
      "จิต": 7199,
      "ยาย": 7200,
      "##ปล่าว": 7201,
      "##ip": 7202,
      "##ect": 7203,
      "##ber": 7204,
      "##ที่ไม่ได้": 7205,
      "##ทำเพื่อ": 7206,
      "##ต้องตาย": 7207,
      "มันอาจ": 7208,
      "เธอไม่เคย": 7209,
      "##สามคน": 7210,
      "เจฟ": 7211,
      "##เอาเงิน": 7212,
      "ใครคือ": 7213,
      "##ไฟล์": 7214,
      "##มัธยม": 7215,
      "##เข้ามาใน": 7216,
      "แค่นี้": 7217,
      "fr": 7218,
      "กลายเป็น": 7219,
      "ฟุต": 7220,
      "วู": 7221,
      "หมา": 7222,
      "##ที่ให้": 7223,
      "และจะ": 7224,
      "##ตัวน้อย": 7225,
      "##เนท": 7226,
      "เขาคือ": 7227,
      "##สำรอง": 7228,
      "##ควรทำ": 7229,
      "คงจะ": 7230,
      "ต่อไป": 7231,
      "อันนี้": 7232,
      "ยังไงก็": 7233,
      "##omment": 7234,
      "##เกือบจะ": 7235,
      "ดีใจที่ได้": 7236,
      "##ชดใช้": 7237,
      "##บ่น": 7238,
      "##ผลก": 7239,
      "##เป็นบ้า": 7240,
      "##เป็นแบบนั้น": 7241,
      "##กันที่": 7242,
      "##ด้วยครับ": 7243,
      "##คิดแบบนั้น": 7244,
      "##หน้าตา": 7245,
      "เมีย": 7246,
      "เจ้านาย": 7247,
      "##เหลือง": 7248,
      "##แห่งนี้": 7249,
      "##มองไม่เห็น": 7250,
      "##มาก่อนเลย": 7251,
      "##โซ่": 7252,
      "เท่านั้น": 7253,
      "##วัยรุ่น": 7254,
      "##ปรากฎ": 7255,
      "##ตรัสว่า": 7256,
      "time": 7257,
      "##จอร์": 7258,
      "##ถั่ว": 7259,
      "##ภัณฑ์": 7260,
      "##จะบอกว่า": 7261,
      "ฉันให้": 7262,
      "คุณจะได้": 7263,
      "คุณได้ยิน": 7264,
      "##หาเขา": 7265,
      "##หน้ากาก": 7266,
      "##ตุ๊ก": 7267,
      "เดฟ": 7268,
      "##หม่อม": 7269,
      "there": 7270,
      "##ใกล้ๆ": 7271,
      "##เยอะเลย": 7272,
      "##ass": 7273,
      "##กิจการ": 7274,
      "##บัญช": 7275,
      "จด": 7276,
      "##ซุก": 7277,
      "##บอ": 7278,
      "##หอ": 7279,
      "##ฉริยะ": 7280,
      "แล้วผม": 7281,
      "##คิดดู": 7282,
      "##ไหมคะ": 7283,
      "เราน่าจะ": 7284,
      "มีเรื่อง": 7285,
      "##แน่ะ": 7286,
      "##กระต": 7287,
      "##ดาล": 7288,
      "##สองครั้ง": 7289,
      "##เชื่อถือ": 7290,
      "เดม่อน": 7291,
      "##ิบรอ": 7292,
      "##แมลง": 7293,
      "ก่อนหน้า": 7294,
      "##ิร์ด": 7295,
      "มิส": 7296,
      "##ร่อย": 7297,
      "##ล็อก": 7298,
      "##งการ": 7299,
      "##ดรู": 7300,
      "##เป็นสิ่ง": 7301,
      "##ละลาย": 7302,
      "##มาก็": 7303,
      "ที่ต้อง": 7304,
      "##ยังอยู่": 7305,
      "##รับการ": 7306,
      "นั่นไม่": 7307,
      "นั่นใคร": 7308,
      "พวกเขามี": 7309,
      "จริงๆนะ": 7310,
      "##use": 7311,
      "##ห่างไกล": 7312,
      "##ไซด์": 7313,
      "##อินเตอร์": 7314,
      "คุณต้องการอะไร": 7315,
      "ชาร์ล": 7316,
      "##ลุย": 7317,
      "##ทฤษฎี": 7318,
      "##ปน": 7319,
      "##ปีก": 7320,
      "##ug": 7321,
      "##ที่ๆ": 7322,
      "##ที่ชั้น": 7323,
      "##ไม่ช้า": 7324,
      "##เป็นเหมือน": 7325,
      "##ฉันอยู่": 7326,
      "และพวก": 7327,
      "##ความเมตตา": 7328,
      "พวกนี้": 7329,
      "นายได้": 7330,
      "##เทค": 7331,
      "แคลร์": 7332,
      "##เกี่ยวกับเรื่องนี้": 7333,
      "เลข": 7334,
      "##ลองดู": 7335,
      "ฉันคิดว่าเธอ": 7336,
      "เนท": 7337,
      "##ยุ่งยาก": 7338,
      "##โดดเดี่ยว": 7339,
      "##การลงโทษอัน": 7340,
      "##เป็นเจ้าของ": 7341,
      "##ทรัพย์สิน": 7342,
      "see": 7343,
      "จอช": 7344,
      "อ๊า": 7345,
      "##อ้อม": 7346,
      "##บ๊": 7347,
      "##บอย": 7348,
      "##บาน": 7349,
      "##ไม่พอ": 7350,
      "##ลอต": 7351,
      "##เอ็ด": 7352,
      "##หลายๆ": 7353,
      "##เธฒเธ": 7354,
      "##เรียกมัน": 7355,
      "##คุกคาม": 7356,
      "##ฮีม": 7357,
      "เธอบอกว่า": 7358,
      "##โครงการ": 7359,
      "เธเธฑเธเธ": 7360,
      "al": 7361,
      "รุ่น": 7362,
      "หก": 7363,
      "##มกลาง": 7364,
      "##ลอก": 7365,
      "##กัปตัน": 7366,
      "##หยาบ": 7367,
      "##พก": 7368,
      "##๊บบี้": 7369,
      "##10": 7370,
      "##ของโลก": 7371,
      "ผมนึก": 7372,
      "มันจะต้อง": 7373,
      "##ด้วยว่า": 7374,
      "##ถึงจะ": 7375,
      "##รับรู้": 7376,
      "##หรืออะไร": 7377,
      "##ตามลำพัง": 7378,
      "##เมื่อไร": 7379,
      "##รู้สึกดี": 7380,
      "##ที่ยาก": 7381,
      "เกิดอะไรขึ้นกับ": 7382,
      "##ฆาตร": 7383,
      "##ชิ้นส่วน": 7384,
      "ให้ตายเถอะ": 7385,
      "##แปลว่า": 7386,
      "##ทะเลาะกัน": 7387,
      "แผ": 7388,
      "##ชิบ": 7389,
      "##ำนาจ": 7390,
      "##ถี": 7391,
      "##ที่โรงเรียน": 7392,
      "##เป็นจริง": 7393,
      "ฉันจำ": 7394,
      "คุณนักสืบ": 7395,
      "##้นท์": 7396,
      "##ริญ": 7397,
      "##ความหมาย": 7398,
      "##รับสาย": 7399,
      "เพราะฉะนั้น": 7400,
      "ขอผม": 7401,
      "อะไรที่": 7402,
      "##วงจร": 7403,
      "##สักแห่ง": 7404,
      "##ใส่ใจ": 7405,
      "##เธฑเน": 7406,
      "##เลี้ยงเด็ก": 7407,
      "##มอบหมาย": 7408,
      "คอม": 7409,
      "ซื้อ": 7410,
      "ั": 7411,
      "ไม่ค่อย": 7412,
      "##เราควร": 7413,
      "##ูกัน": 7414,
      "##กันหน่อย": 7415,
      "##ตัวแทน": 7416,
      "##ทางเดิน": 7417,
      "##แน่เลย": 7418,
      "##ก่อนที่": 7419,
      "ให้กับ": 7420,
      "แม่คะ": 7421,
      "##เพื่อนบ้าน": 7422,
      "##ทำงานที่": 7423,
      "อย่างเช่น": 7424,
      "เรื่องนั้น": 7425,
      "##ทุกอย่างที่": 7426,
      "##แปลกหน้า": 7427,
      "เชื่อฉัน": 7428,
      "##เกรงว่า": 7429,
      "##ขั้นตอน": 7430,
      "ยินดีที่ได้รู้จัก": 7431,
      "##บวนการ": 7432,
      "เป้าหมาย": 7433,
      "##ิบรอฮีม": 7434,
      "ฝาก": 7435,
      "เฉ": 7436,
      "แมน": 7437,
      "##ย่ะ": 7438,
      "##ลอบ": 7439,
      "##จ๋า": 7440,
      "##เเค่": 7441,
      "##บีบ": 7442,
      "##ฏอน": 7443,
      "##เธง": 7444,
      "##ของนาง": 7445,
      "##ื่อม": 7446,
      "##หมวด": 7447,
      "และเราก็": 7448,
      "##ไหมล่ะ": 7449,
      "ทำลาย": 7450,
      "##เบด": 7451,
      "##บางคนที่": 7452,
      "##ฆ่าคุณ": 7453,
      "ผู้ใด": 7454,
      "##ound": 7455,
      "##ติดคุก": 7456,
      "เคท": 7457,
      "อยากจะ": 7458,
      "##เล่าเรื่อง": 7459,
      "##หมายความว่าไง": 7460,
      "##สัญลักษณ์": 7461,
      "##แตกต่างกัน": 7462,
      "สุดท้าย": 7463,
      "##เพชร": 7464,
      "##หวาดกลัว": 7465,
      "##ชู้": 7466,
      "##ยอน": 7467,
      "##ear": 7468,
      "##ดีน": 7469,
      "##ก็ดี": 7470,
      "##อาคาร": 7471,
      "##อาณาจักร": 7472,
      "เขาย": 7473,
      "##ยังเป็น": 7474,
      "เขาถูก": 7475,
      "เขาแค่": 7476,
      "##หรือครับ": 7477,
      "##กำลังทำ": 7478,
      "##เสียอีก": 7479,
      "ไปเร็ว": 7480,
      "##ผลงาน": 7481,
      "##องค์กร": 7482,
      "##เพียงพอ": 7483,
      "##นนี": 7484,
      "##พื้นฐาน": 7485,
      "##ุยส์": 7486,
      "##ตระหนัก": 7487,
      "##ลิสัน": 7488,
      "เสียใจด้วย": 7489,
      "##แสวงหา": 7490,
      "##คืบ": 7491,
      "##เปื้อน": 7492,
      "##เขาย": 7493,
      "##แคบ": 7494,
      "##ทางเพศ": 7495,
      "##ทุกที": 7496,
      "เอานี่": 7497,
      "ได้แล้ว": 7498,
      "##พ่อฉัน": 7499,
      "##เมื่อคืนนี้": 7500,
      "##สักการะ": 7501,
      "##จับตาดู": 7502,
      "##ยอมให้": 7503,
      "เกิดขึ้น": 7504,
      "##อ่านหนังสือ": 7505,
      "##ลงไปใน": 7506,
      "ยังไงก็ตาม": 7507,
      "ขอร้องล่ะ": 7508,
      "เนเธก": 7509,
      "##อพยพ": 7510,
      "##ให้ช่วย": 7511,
      "คุณหมายถึง": 7512,
      "##้นั่น": 7513,
      "โอ๊ะ": 7514,
      "##ขึ้นรถ": 7515,
      "##ประดับ": 7516,
      "##อยากให้ฉัน": 7517,
      "เราม": 7518,
      "##ต้องการความช่วยเหลือ": 7519,
      "เอ้อ": 7520,
      "##เบิล": 7521,
      "ว่าทำไม": 7522,
      "หรืออะไร": 7523,
      "##พาฉัน": 7524,
      "##เธญเธฐ": 7525,
      "##หยัด": 7526,
      "และผมก็": 7527,
      "บ้าเอ๊ย": 7528,
      "เช่นเดียวกับ": 7529,
      "อย่างน้อยก็": 7530,
      "##สนามบิน": 7531,
      "##บ่อยๆ": 7532,
      "ชู": 7533,
      "ฟิน": 7534,
      "มิล": 7535,
      "ริค": 7536,
      "##วู้ด": 7537,
      "##โหว": 7538,
      "##เรมี่": 7539,
      "##ให้แก่พวกเขา": 7540,
      "##เธอไว้": 7541,
      "##เจ้าจะ": 7542,
      "##คิดว่าเขา": 7543,
      "##เคยมี": 7544,
      "##เอเลน่า": 7545,
      "เอามือ": 7546,
      "อะไรเหรอ": 7547,
      "##เงื่อน": 7548,
      "##บอกว่าคุณ": 7549,
      "##จนส์": 7550,
      "##ขวบ": 7551,
      "##รำคาญ": 7552,
      "##ัจฉริยะ": 7553,
      "##ไทย": 7554,
      "##อยุ่": 7555,
      "และโดยแน่นอน": 7556,
      "him": 7557,
      "มหา": 7558,
      "##มิส": 7559,
      "##คอร์": 7560,
      "##ถา": 7561,
      "##ฟี": 7562,
      "เธ": 7563,
      "แต่มันเป็น": 7564,
      "##แค่อ": 7565,
      "##หน้าฉัน": 7566,
      "##ิงตัน": 7567,
      "##เอ่ย": 7568,
      "##นั่นคือ": 7569,
      "เป็นยังไงบ้าง": 7570,
      "เก่ง": 7571,
      "เรื่องอะไร": 7572,
      "##ปัญหาก": 7573,
      "##หักหลัง": 7574,
      "##มานานแล้ว": 7575,
      "สถานที่": 7576,
      "ชนเหล่านี้": 7577,
      "about": 7578,
      "98": 7579,
      "มีก": 7580,
      "##อับ": 7581,
      "##อาน": 7582,
      "##มือน": 7583,
      "##ใหน": 7584,
      "##น้อม": 7585,
      "##เขาม": 7586,
      "##ครีม": 7587,
      "##กับพวกเขา": 7588,
      "เธเธก": 7589,
      "##หล่น": 7590,
      "##หาฉัน": 7591,
      "##วิว": 7592,
      "นายมัน": 7593,
      "##วันนั้น": 7594,
      "##ย์สัน": 7595,
      "##ตายแน่": 7596,
      "ก็จะ": 7597,
      "ว่าแต่": 7598,
      "##บรรดาร่อซูล": 7599,
      "##จะเป็นผู้": 7600,
      "##จะทำร้าย": 7601,
      "##โดยไม่": 7602,
      "บางทีฉัน": 7603,
      "##ort": 7604,
      "##ตอบคำถาม": 7605,
      "##จำเป็นต้องทำ": 7606,
      "##เหตุผลที่": 7607,
      "ครั้งสุดท้าย": 7608,
      "ทำไมเธอถึง": 7609,
      "ฆาตกร": 7610,
      "วง": 7611,
      "##สซี่": 7612,
      "##เอย": 7613,
      "##พลา": 7614,
      "##ที่สาม": 7615,
      "##เป็นทางการ": 7616,
      "##คุณแล้ว": 7617,
      "##เจอน": 7618,
      "##กับดัก": 7619,
      "##ยังมีชีวิตอยู่": 7620,
      "##พูดกัน": 7621,
      "##พร้า": 7622,
      "เกม": 7623,
      "##ดงาม": 7624,
      "##เผ่า": 7625,
      "##เวลานั้น": 7626,
      "ผมคิดว่าผม": 7627,
      "##จดจำ": 7628,
      "##รดก": 7629,
      "##ความเป็นจริง": 7630,
      "##อึน": 7631,
      "อุป": 7632,
      "##บาส": 7633,
      "##แรน": 7634,
      "##เรย์": 7635,
      "##ไปกว่า": 7636,
      "คุณบอก": 7637,
      "คุณครับ": 7638,
      "##ดีเลย": 7639,
      "ผมไม่ใช่": 7640,
      "##เธอแล้ว": 7641,
      "มันอยู่ใน": 7642,
      "มันดูเหมือน": 7643,
      "##ที่จะต้อง": 7644,
      "ขออภัย": 7645,
      "##นาฬิกา": 7646,
      "##ใหม่ๆ": 7647,
      "##มองดู": 7648,
      "##สีขาว": 7649,
      "กล่อง": 7650,
      "##ท้องฟ้า": 7651,
      "##อินเดีย": 7652,
      "did": 7653,
      "กด": 7654,
      "กิ": 7655,
      "##ทู": 7656,
      "ฉันรักคุณ": 7657,
      "เดี๋ยวผม": 7658,
      "##สร้ง": 7659,
      "##แฟรง": 7660,
      "##ตอบสนอง": 7661,
      "##ไพ่": 7662,
      "##ย้ายไป": 7663,
      "##ากลาง": 7664,
      "##เนเธกเนเธ": 7665,
      "##นิวยอร์ก": 7666,
      "##ตกหลุมรัก": 7667,
      "but": 7668,
      "ever": 7669,
      "sa": 7670,
      "อนา": 7671,
      "##ค่าย": 7672,
      "##way": 7673,
      "##เป็นอย่างนั้น": 7674,
      "##มีอยู่": 7675,
      "คุณอยากจะ": 7676,
      "##พวกนาง": 7677,
      "##ก็ไม่รู้": 7678,
      "และจาก": 7679,
      "##อะไรไป": 7680,
      "ผมพยายาม": 7681,
      "##ในขณะนี้": 7682,
      "##ริต": 7683,
      "##ประหาร": 7684,
      "##อยากทำ": 7685,
      "##มั้ยคะ": 7686,
      "##เรียง": 7687,
      "ไปไหน": 7688,
      "พวกเขาได้": 7689,
      "##สักที": 7690,
      "think": 7691,
      "##ได้รับความ": 7692,
      "##แจก": 7693,
      "##ระเบียบ": 7694,
      "##ทราบว่า": 7695,
      "เเละ": 7696,
      "ภาษา": 7697,
      "ยอมรับ": 7698,
      "##โหดร้าย": 7699,
      "##จู่โจม": 7700,
      "##หลีกเลี่ยง": 7701,
      "##คิม": 7702,
      "##บรา": 7703,
      "##ตบ": 7704,
      "##ตั้น": 7705,
      "##Comment": 7706,
      "ฉันสบายดี": 7707,
      "##ของชีวิต": 7708,
      "##เขาไม่ได้": 7709,
      "##มันเอง": 7710,
      "##กับเรื่อง": 7711,
      "##ถึงความ": 7712,
      "##วันก่อน": 7713,
      "เพราะว่าฉัน": 7714,
      "##อยู่ในการ": 7715,
      "##หลังนี้": 7716,
      "##แทรก": 7717,
      "##ถ้าเธอ": 7718,
      "##เกินไปแล้ว": 7719,
      "พวกเราต้อง": 7720,
      "##เพียงคนเดียว": 7721,
      "##แพน": 7722,
      "##ไปได้แล้ว": 7723,
      "##ศรัทธาทั้งหลาย": 7724,
      "ครับผม": 7725,
      "##วีดี": 7726,
      "##เพิ่มขึ้น": 7727,
      "ตรงนั้น": 7728,
      "เดี๋ยวก็": 7729,
      "##ในหมู่พวกเขา": 7730,
      "แดเนียล": 7731,
      "อย่างไรก็ตาม": 7732,
      "##ใช่อย่างนั้น": 7733,
      "##ร่วง": 7734,
      "##งัย": 7735,
      "##หิมะ": 7736,
      "##ure": 7737,
      "##ไม่ตาย": 7738,
      "##เราย": 7739,
      "##มาอยู่ที่นี่": 7740,
      "##ควัน": 7741,
      "##โทรไป": 7742,
      "##โดยไม่มี": 7743,
      "เวล": 7744,
      "แท้จริงอัลลอฮ์นั้น": 7745,
      "หลีก": 7746,
      "มีอะไรเหรอ": 7747,
      "ฉันรู้ว่ามัน": 7748,
      "##ตื่นขึ้นมา": 7749,
      "ทุกอย่างเรียบร้อย": 7750,
      "##วุฒ": 7751,
      "##เนเธฅเนเธง": 7752,
      "สัญญาณ": 7753,
      "##ลิ้มรส": 7754,
      "But": 7755,
      "##ธ์": 7756,
      "##เธอย": 7757,
      "##ไปส่ง": 7758,
      "ฉันเชื่อ": 7759,
      "##นั้นได้": 7760,
      "##เคมี": 7761,
      "##วิง": 7762,
      "##ไหมครับ": 7763,
      "##ล่ะสิ": 7764,
      "ใช่มั๊ย": 7765,
      "เป็นที่": 7766,
      "##ทำอะไรน่ะ": 7767,
      "##จะไม่ถูก": 7768,
      "##นักโทษ": 7769,
      "##โรป": 7770,
      "##ที่ดีกว่า": 7771,
      "ระดับ": 7772,
      "##เธตเธข": 7773,
      "เข้าใจแล้ว": 7774,
      "##เภณี": 7775,
      "##แช่ง": 7776,
      "##ปลดปล่อย": 7777,
      "##วัตถุ": 7778,
      "บอนนี่": 7779,
      "มึง": 7780,
      "อแมนด้า": 7781,
      "เอก": 7782,
      "##ก้": 7783,
      "##พู": 7784,
      "##ที่แย่": 7785,
      "ฉันอาจจะ": 7786,
      "##ฉันมี": 7787,
      "##ทำผิด": 7788,
      "##เขาให้": 7789,
      "##ระบาย": 7790,
      "คุณหมอ": 7791,
      "##คนใน": 7792,
      "##ก็คง": 7793,
      "และบรรดา": 7794,
      "ผมสัญญา": 7795,
      "เธอชอบ": 7796,
      "##จริงนะ": 7797,
      "##พูดอย่างนั้น": 7798,
      "##สิ่งหนึ่ง": 7799,
      "##เอฟบีไอ": 7800,
      "##สำรวจ": 7801,
      "##นั่นมัน": 7802,
      "##ชายคนนี้": 7803,
      "ฉันจะได้": 7804,
      "ข้าคิดว่า": 7805,
      "##อันดับ": 7806,
      "##งั้นหรือ": 7807,
      "ยังคง": 7808,
      "อยู่ที่": 7809,
      "##อย่างไรบ้าง": 7810,
      "##แถวๆ": 7811,
      "##ประสบความสำเร็จ": 7812,
      "ทอมมี่": 7813,
      "##เซ็กซี่": 7814,
      "จิน": 7815,
      "##หัด": 7816,
      "##แวด": 7817,
      "##ศี": 7818,
      "##ญาน": 7819,
      "##ขย": 7820,
      "##โอ้": 7821,
      "##๊อป": 7822,
      "##เธเธ": 7823,
      "##เป็นคู่": 7824,
      "##ให้แม่": 7825,
      "##หรู": 7826,
      "มันจบแล้ว": 7827,
      "##หาได้": 7828,
      "##ัยการ": 7829,
      "ไปยัง": 7830,
      "##เท่ากับ": 7831,
      "##จริงๆเหรอ": 7832,
      "##ติดตั้ง": 7833,
      "##สันติ": 7834,
      "ฉันคิดว่ามัน": 7835,
      "##ใบนี้": 7836,
      "มากับ": 7837,
      "##ได้เลยว่า": 7838,
      "##ัศวิน": 7839,
      "##ชี้แนะ": 7840,
      "เต็ม": 7841,
      "##ถัดไป": 7842,
      "Let": 7843,
      "So": 7844,
      "นิว": 7845,
      "สิบ": 7846,
      "แกร": 7847,
      "ไก": 7848,
      "##ชาร์ลี": 7849,
      "##ทนา": 7850,
      "##ew": 7851,
      "##ud": 7852,
      "##่ารัก": 7853,
      "##ที่กำลัง": 7854,
      "##มีแผน": 7855,
      "##มีเหตุผล": 7856,
      "คุณไม่รู้": 7857,
      "##ตัวนี้": 7858,
      "ถ้าเจ้า": 7859,
      "นายก็รู้": 7860,
      "##ทำให้พวกเขา": 7861,
      "##หรอกค่ะ": 7862,
      "##ทำอะไรที่นี่": 7863,
      "##นำทาง": 7864,
      "##เศรษฐ": 7865,
      "##สำคัญมาก": 7866,
      "##แฮน": 7867,
      "ครั้งแรก": 7868,
      "##อยู่ข้างใน": 7869,
      "##ท้องถิ่น": 7870,
      "##ไวรัส": 7871,
      "##ร่อซูลของพระองค์": 7872,
      "##เธญเธขเธน": 7873,
      "##ปิศาจ": 7874,
      "บ๊อบบี้": 7875,
      "ไทเลอร์": 7876,
      "มาน": 7877,
      "ริช": 7878,
      "##ห้าง": 7879,
      "##​​": 7880,
      "##ที่แสน": 7881,
      "##ของความ": 7882,
      "##มานี้": 7883,
      "##อะไรเหรอ": 7884,
      "##รู้ได้ยังไง": 7885,
      "##กลม": 7886,
      "##เกราะ": 7887,
      "มันช่าง": 7888,
      "##เตียน": 7889,
      "ถ้าไม่มี": 7890,
      "เอส": 7891,
      "##ที่จะไป": 7892,
      "##เรียบ": 7893,
      "##สิ่งที่พวกเจ้า": 7894,
      "##เงา": 7895,
      "##อันชัดแจ้ง": 7896,
      "##จะทำอย่างไร": 7897,
      "##ุษย": 7898,
      "ฉันรู้ว่าเธอ": 7899,
      "##หมายความว่ายังไง": 7900,
      "##ไหล่": 7901,
      "มาร์ติน": 7902,
      "bl": 7903,
      "back": 7904,
      "will": 7905,
      "ดา": 7906,
      "ดวง": 7907,
      "บา": 7908,
      "อาวุธ": 7909,
      "##อั": 7910,
      "##อาน่า": 7911,
      "##ลเดอร์": 7912,
      "##ป่ะ": 7913,
      "##ฝุ่น": 7914,
      "##ามี่": 7915,
      "##ี้ด": 7916,
      "##คุณถึง": 7917,
      "คุณกำลังจะ": 7918,
      "ไม่รู้ว่า": 7919,
      "##มันลง": 7920,
      "##อยู่เสมอ": 7921,
      "ผมบอกคุณ": 7922,
      "##เกิล": 7923,
      "เราพบ": 7924,
      "##บอกความจริง": 7925,
      "##งานแต่ง": 7926,
      "##ทุกเรื่อง": 7927,
      "##ลูกหมา": 7928,
      "คนอื่น": 7929,
      "##วงศ์": 7930,
      "งั้นฉัน": 7931,
      "ใครบางคน": 7932,
      "##จับได้": 7933,
      "##ลำดับ": 7934,
      "##ไปไหนมา": 7935,
      "##เสริญ": 7936,
      "ยินดีต้อนรับสู่": 7937,
      "##ขนมปัง": 7938,
      "##มหัศจรรย์": 7939,
      "ขี้": 7940,
      "สมอง": 7941,
      "##คุณไม่ได้": 7942,
      "##ทำสิ่งที่": 7943,
      "##อะไรอีก": 7944,
      "ผมได้ยิน": 7945,
      "##ความโปรดปราน": 7946,
      "แต่ทำไม": 7947,
      "นายไม่ได้": 7948,
      "##ปร่าง": 7949,
      "ตอนแรก": 7950,
      "อะไรคือ": 7951,
      "##ชื่อว่า": 7952,
      "ผู้พัน": 7953,
      "##สูบ": 7954,
      "##แจง": 7955,
      "โดยการ": 7956,
      "บางทีเขา": 7957,
      "##ออกจากบ้าน": 7958,
      "มานี่สิ": 7959,
      "##็อกเตอร์": 7960,
      "##ประทานลงมา": 7961,
      "##บัญชาการ": 7962,
      "บัด": 7963,
      "##หว่า": 7964,
      "##ปารีส": 7965,
      "##ฟอร์": 7966,
      "##ies": 7967,
      "##เราก": 7968,
      "##ทำกับ": 7969,
      "คุณแค่": 7970,
      "##มันออกมา": 7971,
      "##หมาก": 7972,
      "แล้วเรื่อง": 7973,
      "เธอจะไม่": 7974,
      "##เทร": 7975,
      "##ไว้บน": 7976,
      "##สุดสัปดาห์": 7977,
      "ข้าไม่ได้": 7978,
      "##ตรงกัน": 7979,
      "##ปีแล้ว": 7980,
      "ไม่ใช่เรื่อง": 7981,
      "##กำพร้า": 7982,
      "พี่สาว": 7983,
      "##อรมัน": 7984,
      "##ในหมู่พวกเจ้า": 7985,
      "##ผนัง": 7986,
      "คุก": 7987,
      "บรี": 7988,
      "แองเจ": 7989,
      "##ซีน": 7990,
      "##ปัก": 7991,
      "##โง": 7992,
      "##โฆษ": 7993,
      "##ฮ์": 7994,
      "##ที่ท่าน": 7995,
      "##ที่อื่น": 7996,
      "##ของส": 7997,
      "##มันให้": 7998,
      "##พวกที่": 7999,
      "##คนพวกนี้": 8000,
      "##เจมส์": 8001,
      "##เธอด้วย": 8002,
      "##ความเห็น": 8003,
      "##ความมืด": 8004,
      "##เคาะ": 8005,
      "##มากพอ": 8006,
      "เราคง": 8007,
      "ถ้ามี": 8008,
      "##เทอ": 8009,
      "##็กซิ": 8010,
      "##รักฉัน": 8011,
      "##ตามตรง": 8012,
      "##พ่อของฉัน": 8013,
      "##ครั้งหนึ่ง": 8014,
      "หน่อย": 8015,
      "เจ้าจะ": 8016,
      "##คุยเรื่อง": 8017,
      "##น้ำตาล": 8018,
      "เหมือนกัน": 8019,
      "##นนิส": 8020,
      "##ขับไล่": 8021,
      "เซรีน่า": 8022,
      "##ผู้ที่พระองค์ทรงประสงค์": 8023,
      "That": 8024,
      "##ากลัว": 8025,
      "##อนุญาติ": 8026,
      "##ปรับปรุง": 8027,
      "##ไม่ไหวแล้ว": 8028,
      "กฎ": 8029,
      "สู": 8030,
      "ออ": 8031,
      "อร่อย": 8032,
      "##อัป": 8033,
      "##โถ": 8034,
      "##๊ต": 8035,
      "##เรก": 8036,
      "##เป็นความลับ": 8037,
      "ฉันสาบาน": 8038,
      "##มาเยี่ยม": 8039,
      "ผมเอง": 8040,
      "##ผมด้วย": 8041,
      "##เพี้ยน": 8042,
      "##อย่างรวดเร็ว": 8043,
      "##ยังเด็ก": 8044,
      "มีแค่": 8045,
      "##ทำให้นาย": 8046,
      "ไปได้": 8047,
      "##ครั้งใหญ่": 8048,
      "##ไม่ใช่เรื่อง": 8049,
      "##กรีด": 8050,
      "##บนึง": 8051,
      "##งั้นสิ": 8052,
      "##โรงงาน": 8053,
      "##โนม": 8054,
      "##เธเธตเน": 8055,
      "##ลอนดอน": 8056,
      "##จูงใจ": 8057,
      "จ่า": 8058,
      "ชัด": 8059,
      "สาบ": 8060,
      "##ล่อง": 8061,
      "##ศรี": 8062,
      "##ข้อม": 8063,
      "##ขลาด": 8064,
      "##ฮาร์": 8065,
      "##จะใช้": 8066,
      "##เริง": 8067,
      "##ทำหน้าที่": 8068,
      "##นะบี": 8069,
      "##เกรด": 8070,
      "เราร": 8071,
      "##เอมิลี่": 8072,
      "##สนทนา": 8073,
      "##พบเขา": 8074,
      "##แก่เรา": 8075,
      "##สำหรับเธอ": 8076,
      "##ติดเชื้อ": 8077,
      "##อันนี้": 8078,
      "##ต่างก็": 8079,
      "##โดยสาร": 8080,
      "แม็กซ์": 8081,
      "##ียร์ซ": 8082,
      "##กระทำความดี": 8083,
      "หมายเลข": 8084,
      "ลองดู": 8085,
      "##irl": 8086,
      "รักษา": 8087,
      "##บุญคุณ": 8088,
      "sp": 8089,
      "ดอน": 8090,
      "##มรดก": 8091,
      "##ชาร์": 8092,
      "##ดร": 8093,
      "##ดื้อ": 8094,
      "ฉันน่าจะ": 8095,
      "##กับตัวเอง": 8096,
      "##นี่นะ": 8097,
      "##เน็ท": 8098,
      "##ทั้งชีวิต": 8099,
      "เพราะเรา": 8100,
      "##เยซู": 8101,
      "อะไรก็ตาม": 8102,
      "ให้เธอ": 8103,
      "คนพวกนี้": 8104,
      "##แท็กซี่": 8105,
      "มาแล้ว": 8106,
      "ของการ": 8107,
      "##ปีน": 8108,
      "##ถามคำถาม": 8109,
      "แมท": 8110,
      "##สถานะ": 8111,
      "คุณไม่เป็นไร": 8112,
      "##โล่ง": 8113,
      "##ตรวจดู": 8114,
      "##ิร์น": 8115,
      "กล้อง": 8116,
      "##โหลก": 8117,
      "ตายแล้ว": 8118,
      "##ไปหมดแล้ว": 8119,
      "##ทักทาย": 8120,
      "22": 8121,
      "กุญแจ": 8122,
      "ซ่อน": 8123,
      "##อู": 8124,
      "##ชัง": 8125,
      "##ชิม": 8126,
      "##ต้ม": 8127,
      "##ขอย": 8128,
      "##34": 8129,
      "##ั้ม": 8130,
      "##อยู่ใต้": 8131,
      "และผู้": 8132,
      "##กันมา": 8133,
      "##คิดผิด": 8134,
      "##ลาออก": 8135,
      "เอมี่": 8136,
      "##สิ่งที่อยู่ใน": 8137,
      "##เถื่อน": 8138,
      "ฉันไม่อยากให้": 8139,
      "ทำไมเราไม่": 8140,
      "##เธฒเธฃเธ": 8141,
      "##บรด": 8142,
      "พูดถึง": 8143,
      "##แบล": 8144,
      "##แถบ": 8145,
      "##ตัวกัน": 8146,
      "##ไซต์": 8147,
      "##ฟิร": 8148,
      "##ผลกระทบ": 8149,
      "fuck": 8150,
      "her": 8151,
      "หลับ": 8152,
      "ออส": 8153,
      "##ซุป": 8154,
      "##สับ": 8155,
      "##คาว": 8156,
      "##แสร้ง": 8157,
      "##ฟาร์ม": 8158,
      "##ละอาย": 8159,
      "##เลยหรอ": 8160,
      "แต่ท": 8161,
      "เราเพิ่ง": 8162,
      "##เน": 8163,
      "เขาชื่อ": 8164,
      "ว่าจะ": 8165,
      "อะไรเนี่ย": 8166,
      "##อยู่ในรถ": 8167,
      "เจ้าต้อง": 8168,
      "##แย่ง": 8169,
      "อย่างแรก": 8170,
      "##จับกุม": 8171,
      "##จัดการเรื่องนี้": 8172,
      "##เนเธญเธเธ": 8173,
      "ปีศาจ": 8174,
      "น่าจะเป็น": 8175,
      "คุณไม่ต้อง": 8176,
      "##ขนาดใหญ่": 8177,
      "##บุรุษ": 8178,
      "และคุณก็": 8179,
      "เจนนี่": 8180,
      "สงคราม": 8181,
      "##เวทมนตร์": 8182,
      "##ปราศจาก": 8183,
      "ภาร": 8184,
      "มัก": 8185,
      "อื้ม": 8186,
      "##วอล์": 8187,
      "##บอส": 8188,
      "##ปิ้ง": 8189,
      "##โสด": 8190,
      "##la": 8191,
      "##ของเหยื่อ": 8192,
      "คุณเป็นอะไร": 8193,
      "##ผมเป็น": 8194,
      "เธอไม่ใช่": 8195,
      "เขาจะไม่": 8196,
      "นี่อะไร": 8197,
      "ถ้าแก": 8198,
      "##เทว": 8199,
      "##ข้าจะ": 8200,
      "##แหก": 8201,
      "##เมื่อคุณ": 8202,
      "##ิก้า": 8203,
      "##เพื่อนๆ": 8204,
      "##แฟร์": 8205,
      "##บรดี้": 8206,
      "##เต็มไปหมด": 8207,
      "##ตนเอง": 8208,
      "ฉันอยากได้": 8209,
      "ทาน": 8210,
      "แวน": 8211,
      "##กก": 8212,
      "##ทุบ": 8213,
      "##้วก": 8214,
      "##้วาง": 8215,
      "ฉันลืม": 8216,
      "##ของครอบครัว": 8217,
      "##แล้วใช่ไหม": 8218,
      "##มันออก": 8219,
      "ผมสามารถ": 8220,
      "##เธอไม่ได้": 8221,
      "##กับผู้หญิง": 8222,
      "##เราอยู่": 8223,
      "##เดย์": 8224,
      "##คือผู้": 8225,
      "##เหม็น": 8226,
      "ก็ต้อง": 8227,
      "##เรียส": 8228,
      "##ข้าได้": 8229,
      "##ont": 8230,
      "##นิยาย": 8231,
      "##โนโล": 8232,
      "##ดวงอาทิตย์": 8233,
      "##ชัยฏอน": 8234,
      "##ล่วงหน้า": 8235,
      "##ข่มขืน": 8236,
      "##เดือดร้อน": 8237,
      "ยาก": 8238,
      "เต้น": 8239,
      "แอล": 8240,
      "##อุด": 8241,
      "##ิหาร": 8242,
      "##if": 8243,
      "##ให้นะ": 8244,
      "##การต่อสู้": 8245,
      "##เธอเป็น": 8246,
      "##เธอเลย": 8247,
      "##เทล": 8248,
      "##มั้ยครับ": 8249,
      "##แม่ฉัน": 8250,
      "##บ้านฉัน": 8251,
      "ให้มัน": 8252,
      "##เมื่อเช้านี้": 8253,
      "##มือขึ้น": 8254,
      "##รู้สึกดีขึ้น": 8255,
      "##ตลอดชีวิต": 8256,
      "ฉันก็แค่": 8257,
      "##ใบไม้": 8258,
      "##เฮนรี่": 8259,
      "ฉันอยากให้คุณ": 8260,
      "##ท่าทาง": 8261,
      "##ที่พวกเขาจะ": 8262,
      "โชคดีนะ": 8263,
      "แน่ใจนะ": 8264,
      "##ัฒน": 8265,
      "รวมทั้ง": 8266,
      "คู่หู": 8267,
      "สบายดี": 8268,
      "##ศักดิ์สิทธิ์": 8269,
      "##อิจฉา": 8270,
      "ข้าแต่พระเจ้า": 8271,
      "65": 8272,
      "man": 8273,
      "กี่": 8274,
      "ชอว์": 8275,
      "สั่ง": 8276,
      "##อึด": 8277,
      "##มีย": 8278,
      "##ยืด": 8279,
      "##แอล": 8280,
      "##ดอร์": 8281,
      "##ษ์": 8282,
      "##oh": 8283,
      "##หมื่น": 8284,
      "เธเธธเธ": 8285,
      "ที่ทำให้": 8286,
      "##เรื่องทั้งหมด": 8287,
      "##ล่าม": 8288,
      "##ลอี้": 8289,
      "##พระผู้เป็นเจ้า": 8290,
      "แค่อยาก": 8291,
      "##จะได้ยิน": 8292,
      "##คุยเรื่องนี้": 8293,
      "##เล่นงาน": 8294,
      "##เสียงดัง": 8295,
      "แม็ค": 8296,
      "##ที่ยอด": 8297,
      "ครึ่ง": 8298,
      "##เนเธฃ": 8299,
      "หลาน": 8300,
      "##จะมาถึง": 8301,
      "คำตอบ": 8302,
      "##ฟิลด์": 8303,
      "##ตอเรีย": 8304,
      "สาบาน": 8305,
      "80": 8306,
      "คาล": 8307,
      "##ดม": 8308,
      "##pt": 8309,
      "##ที่ต้องการ": 8310,
      "##ได้มี": 8311,
      "##เร้น": 8312,
      "ฉันยังไม่": 8313,
      "##เขาไม่": 8314,
      "คุณอาจ": 8315,
      "คุณพ่อ": 8316,
      "และเราจะ": 8317,
      "ผมหวัง": 8318,
      "แต่ใน": 8319,
      "##คิดยังไง": 8320,
      "เธอจะต้อง": 8321,
      "พวกเราก็": 8322,
      "พวกเรากำลัง": 8323,
      "##แก่ม": 8324,
      "##ไว้สำหรับ": 8325,
      "##ช่วยเรา": 8326,
      "ตอนที่คุณ": 8327,
      "##พรสวรรค์": 8328,
      "##จะไปหา": 8329,
      "##ใหญ่หลวง": 8330,
      "ผมไม่สามารถ": 8331,
      "##ว่างเปล่า": 8332,
      "คงไม่": 8333,
      "##ase": 8334,
      "br": 8335,
      "if": 8336,
      "or": 8337,
      "กิล": 8338,
      "##ล้ำ": 8339,
      "##les": 8340,
      "##เป็นวัน": 8341,
      "##นี้จะ": 8342,
      "##อยู่ไหม": 8343,
      "แต่พ่อ": 8344,
      "แล้วเจ้า": 8345,
      "เธออาจจะ": 8346,
      "##เข้าคุก": 8347,
      "##อยากไป": 8348,
      "##ที่จะทำให้": 8349,
      "##นั่นเป็น": 8350,
      "ไปซะ": 8351,
      "##เอาของ": 8352,
      "##เยอร์": 8353,
      "##สมุ": 8354,
      "คืออะไร": 8355,
      "เข้าไปใน": 8356,
      "เน": 8357,
      "##ปืนลง": 8358,
      "##ที่เขาจะ": 8359,
      "เธอกับ": 8360,
      "##ักษะ": 8361,
      "นั่นคือสิ่งที่": 8362,
      "##เพศสัมพันธ์": 8363,
      "เข้ามาสิ": 8364,
      "##ซึม": 8365,
      "##สรรเสริญ": 8366,
      "##ทัศน์": 8367,
      "##คืบหน้า": 8368,
      "ดัง": 8369,
      "ศาส": 8370,
      "##ชี่": 8371,
      "##หด": 8372,
      "##หมี": 8373,
      "##โฉ": 8374,
      "##ฟัส": 8375,
      "##oy": 8376,
      "##ให้เจอ": 8377,
      "##ให้โอกาส": 8378,
      "##ก็พอ": 8379,
      "##ควีน": 8380,
      "ใช่ๆ": 8381,
      "##ตามรอย": 8382,
      "##กรี": 8383,
      "##ผลไม้": 8384,
      "##แทก": 8385,
      "##มืออาชีพ": 8386,
      "ท่านผู้": 8387,
      "เรื่องการ": 8388,
      "เรื่องมัน": 8389,
      "ขอโทษนะคะ": 8390,
      "##ไฟไหม้": 8391,
      "##นิยม": 8392,
      "##โนว์": 8393,
      "##ฝันร้าย": 8394,
      "##ในสิ่งที่พวกเจ้า": 8395,
      "##ough": 8396,
      "##แวดล้อม": 8397,
      "มอน": 8398,
      "แวมไพร์": 8399,
      "##บดี": 8400,
      "##็อด": 8401,
      "##ด็จ": 8402,
      "##ว่างั้น": 8403,
      "##เข็น": 8404,
      "##คุณเลย": 8405,
      "##แล้วแต่": 8406,
      "คุณนี่": 8407,
      "##ผมต้อง": 8408,
      "##จากที่": 8409,
      "ที่พวกเขา": 8410,
      "##ไหมว่า": 8411,
      "##เทียน": 8412,
      "##หรือคะ": 8413,
      "##น่าเบื่อ": 8414,
      "แม่ฉัน": 8415,
      "งั้นคุณก็": 8416,
      "##อยู่กับฉัน": 8417,
      "##อยู่กับเธอ": 8418,
      "ฉันก็เหมือนกัน": 8419,
      "ไอ้พวก": 8420,
      "##เธญเธ": 8421,
      "##เพิ่มเติม": 8422,
      "##เธฑเธเธ": 8423,
      "แอนนี่": 8424,
      "##เคารพภักดี": 8425,
      "พวกท่านจง": 8426,
      "##age": 8427,
      "##เอ็นดู": 8428,
      "##ชุมน": 8429,
      "##อ่าง": 8430,
      "##ออส": 8431,
      "##ย่อย": 8432,
      "##ซุ": 8433,
      "##ูป": 8434,
      "##เละ": 8435,
      "##ฉาย": 8436,
      "##ขีด": 8437,
      "##จะส่ง": 8438,
      "ฉันรักเธอ": 8439,
      "##ทำไป": 8440,
      "##อยู่ระหว่าง": 8441,
      "##อบอุ่น": 8442,
      "ที่ถูก": 8443,
      "##เจ้าชาย": 8444,
      "เขาเคย": 8445,
      "##ออกนอก": 8446,
      "##พราก": 8447,
      "เดล": 8448,
      "##ตรงข้าม": 8449,
      "ความสัมพันธ์": 8450,
      "##โกแล": 8451,
      "##พิท": 8452,
      "##โรแมน": 8453,
      "##ทานอาหาร": 8454,
      "##เหยียบ": 8455,
      "##หลังจากที่": 8456,
      "##คุ้มค่า": 8457,
      "แอนนา": 8458,
      "##วิดีโอ": 8459,
      "##ไพรส์": 8460,
      "##โน้ม": 8461,
      "แผ่น": 8462,
      "60": 8463,
      "love": 8464,
      "ธุ": 8465,
      "ปลอดภัย": 8466,
      "สก": 8467,
      "##อิม": 8468,
      "##มิด": 8469,
      "##ซเธก": 8470,
      "##ปภ": 8471,
      "##เขาด้วย": 8472,
      "##เราสองคน": 8473,
      "##ใจดี": 8474,
      "แต่แม่": 8475,
      "##ตัวแล้ว": 8476,
      "##ไม่ได้ยิน": 8477,
      "เราควรจะ": 8478,
      "เธอพูดถูก": 8479,
      "##ใช้จ่าย": 8480,
      "##อยู่ในบ้าน": 8481,
      "อย่านะ": 8482,
      "คนนี้": 8483,
      "##พบเธอ": 8484,
      "ทุกครั้ง": 8485,
      "##ตัวเองได้": 8486,
      "##ank": 8487,
      "ปีที่แล้ว": 8488,
      "ประเด็น": 8489,
      "##ิญญาณ": 8490,
      "ไม่ต้องกังวล": 8491,
      "##ขอบเขต": 8492,
      "##ทะลุ": 8493,
      "##ขาดทุน": 8494,
      "##สมาธิ": 8495,
      "##แคมป์": 8496,
      "now": 8497,
      "น้า": 8498,
      "ปาร์ตี้": 8499,
      "รึ": 8500,
      "##้ด": 8501,
      "##ตต้า": 8502,
      "##แง่": 8503,
      "##ขุน": 8504,
      "##ๆกับ": 8505,
      "##ทำกัน": 8506,
      "##นั้นทรง": 8507,
      "##เนล": 8508,
      "##เนียร์": 8509,
      "##นายนะ": 8510,
      "##ลาว": 8511,
      "##ทางที่": 8512,
      "##ลูกน้อง": 8513,
      "เอาง": 8514,
      "ฉันไม่แน่ใจ": 8515,
      "อย่าบอก": 8516,
      "หรือจะ": 8517,
      "##ที่สุดในโลก": 8518,
      "##คลิน": 8519,
      "##หลายครั้ง": 8520,
      "อยู่บน": 8521,
      "โดยไม่": 8522,
      "ซึ่งเป็น": 8523,
      "แต่ฉันก็": 8524,
      "แท้จริงพระองค์": 8525,
      "##ite": 8526,
      "##จุดจบ": 8527,
      "##กำลังจะตาย": 8528,
      "##ice": 8529,
      "##ide": 8530,
      "รวมถึง": 8531,
      "any": 8532,
      "ฉลาด": 8533,
      "ซุก": 8534,
      "ปู่": 8535,
      "รัส": 8536,
      "ล่ะ": 8537,
      "##อัส": 8538,
      "##ซัม": 8539,
      "##นัม": 8540,
      "##คาบ": 8541,
      "##ตัง": 8542,
      "##ปอด": 8543,
      "##ผึ้ง": 8544,
      "##ได้มา": 8545,
      "##เร็ต": 8546,
      "##้วัน": 8547,
      "##ให้ไป": 8548,
      "##ในตอน": 8549,
      "##เจร": 8550,
      "##เจริญ": 8551,
      "##เสื่อม": 8552,
      "##และก็": 8553,
      "##ยังไงล่ะ": 8554,
      "อะไรวะ": 8555,
      "##สองวัน": 8556,
      "ผมไม่เข้าใจ": 8557,
      "##เธฒเธเธ": 8558,
      "##พวกเขากำลัง": 8559,
      "##นอนหลับ": 8560,
      "##ผู้ชายคนนี้": 8561,
      "##เถิดว่า": 8562,
      "##จิตวิญญาณ": 8563,
      "แบบนั้น": 8564,
      "จำนวน": 8565,
      "##ซาเบ": 8566,
      "##เคารพสักการะ": 8567,
      "##เงียบๆ": 8568,
      "##ลุกขึ้น": 8569,
      "จูบ": 8570,
      "##สรรค์": 8571,
      "##ท่องเที่ยว": 8572,
      "De": 8573,
      "##รอก": 8574,
      "##มาร์ค": 8575,
      "##ึน": 8576,
      "##ac": 8577,
      "##ว่าเจ้า": 8578,
      "ฉันว่ามัน": 8579,
      "##รู้เรื่องนี้": 8580,
      "##ผมเลย": 8581,
      "##อย่างนึง": 8582,
      "##คือผู้ทรง": 8583,
      "##ต่อพระองค์": 8584,
      "ก็มี": 8585,
      "ก็คง": 8586,
      "##หมดสติ": 8587,
      "##ชายหาด": 8588,
      "##ตรงกับ": 8589,
      "แกมัน": 8590,
      "##กินข้าว": 8591,
      "เยี่ยมไปเลย": 8592,
      "เรากำลังจะ": 8593,
      "##ะตr": 8594,
      "ชิ้น": 8595,
      "##ฟากฟ้า": 8596,
      "##เธญเธฐเนเธ": 8597,
      "ขาย": 8598,
      "ขโมย": 8599,
      "ลบ": 8600,
      "ลุย": 8601,
      "##โอก": 8602,
      "##เธธเธ": 8603,
      "ฉันได้รับ": 8604,
      "##านั่น": 8605,
      "เพอร์": 8606,
      "##เชือก": 8607,
      "##ประสาน": 8608,
      "นี่ฉัน": 8609,
      "นายทำ": 8610,
      "นั่นอะไร": 8611,
      "##ใช้อ": 8612,
      "##หรอกน่า": 8613,
      "ตอนที่ผม": 8614,
      "ขอตัว": 8615,
      "##ชีวิตฉัน": 8616,
      "ให้เขา": 8617,
      "##เด็กผู้หญิง": 8618,
      "ทุกสิ่ง": 8619,
      "##เดินเล่น": 8620,
      "##จนกระทั่ง": 8621,
      "แต่ฉันไม่": 8622,
      "##สร้างความ": 8623,
      "##แย่ลง": 8624,
      "##เราได้ให้": 8625,
      "##โมงค์": 8626,
      "##ish": 8627,
      "##สติก": 8628,
      "ข้างนอก": 8629,
      "เถอะน่า": 8630,
      "##ชุมนุม": 8631,
      "##อัพ": 8632,
      "##ลัน": 8633,
      "##วุง": 8634,
      "##หุบปาก": 8635,
      "##ดาม": 8636,
      "##ิโอ": 8637,
      "##qu": 8638,
      "##คุณเป็น": 8639,
      "##นั้นเป็นผู้ทรง": 8640,
      "มันเกี่ยวกับ": 8641,
      "##นี่เอง": 8642,
      "เขาชอบ": 8643,
      "##เข้าท่า": 8644,
      "##สิ่งเดียว": 8645,
      "ขอต้อนรับ": 8646,
      "##ทำอะไรลงไป": 8647,
      "##หญิงสาว": 8648,
      "##หายไปแล้ว": 8649,
      "##สูท": 8650,
      "ชั้นจะ": 8651,
      "##บางอย่างที่": 8652,
      "ไม่เป็นไรค่ะ": 8653,
      "##ที่เธอจะ": 8654,
      "##เวลากลาง": 8655,
      "##เต็มใจ": 8656,
      "แล้วคุณล่ะ": 8657,
      "ส่วนใหญ่": 8658,
      "โชค": 8659,
      "รายการ": 8660,
      "##ปราสาท": 8661,
      "##เมื่อวานนี้": 8662,
      "จิมมี่": 8663,
      "##ตุ๊กตา": 8664,
      "##โนโลยี": 8665,
      "Yeah": 8666,
      "จ่าย": 8667,
      "ปธน": 8668,
      "##อาร": 8669,
      "##วัตร": 8670,
      "##ิธ": 8671,
      "##ภ์": 8672,
      "##NA": 8673,
      "##ที่รู้": 8674,
      "ฉันมัน": 8675,
      "คุณไม่มี": 8676,
      "##วยพร": 8677,
      "ผมเป็นคน": 8678,
      "เขาร": 8679,
      "##รอคอย": 8680,
      "เราไม่สามารถ": 8681,
      "##คิดไว้": 8682,
      "##ไงดี": 8683,
      "##ต้องการให้คุณ": 8684,
      "ก็เป็น": 8685,
      "ไปได้แล้ว": 8686,
      "ไปให้พ้น": 8687,
      "##รู้ว่าเขา": 8688,
      "##เย็บ": 8689,
      "##ครั้งนึง": 8690,
      "##เซ็กซ์": 8691,
      "##เซรีน่า": 8692,
      "##แก่บรรดาผู้": 8693,
      "##นักล่า": 8694,
      "พวกเขาไม่": 8695,
      "พวกเขาไม่ได้": 8696,
      "ความลับ": 8697,
      "##ติดกับ": 8698,
      "##ตำหนิ": 8699,
      "##มีความสามารถ": 8700,
      "##ark": 8701,
      "แม็ก": 8702,
      "ช่วยฉัน": 8703,
      "ปีแล้ว": 8704,
      "##เฟล": 8705,
      "##โล่": 8706,
      "##ผู้ชายที่": 8707,
      "ใช้เวลา": 8708,
      "##ally": 8709,
      "โอลิเวอร์": 8710,
      "ภารกิจ": 8711,
      "ฮืม": 8712,
      "##ร่อน": 8713,
      "##กรง": 8714,
      "##พาส": 8715,
      "##ผุ้": 8716,
      "##ob": 8717,
      "##yn": 8718,
      "##33": 8719,
      "##ล้วน": 8720,
      "##เล็ต": 8721,
      "เธอนี่": 8722,
      "##รอส": 8723,
      "##หลาก": 8724,
      "##หาอะไร": 8725,
      "##เข้ากับ": 8726,
      "##ออกจะ": 8727,
      "ในขณะ": 8728,
      "##ตามไป": 8729,
      "##ใช้เงิน": 8730,
      "##เยอรมัน": 8731,
      "##กรีน": 8732,
      "##บ้างนะ": 8733,
      "##อัลลอฮฺทรง": 8734,
      "##โชคร้าย": 8735,
      "กระเป๋า": 8736,
      "##รอดชีวิต": 8737,
      "##ที่น่ารัก": 8738,
      "บ้าเอ้ย": 8739,
      "##มาหาฉัน": 8740,
      "##วัยวะ": 8741,
      "ได้รับการ": 8742,
      "##วิงวอนขอ": 8743,
      "หมอบลง": 8744,
      "บิน": 8745,
      "ลด": 8746,
      "สเต": 8747,
      "##ๆกัน": 8748,
      "##ษฐาน": 8749,
      "ผมรู้จัก": 8750,
      "##ในงาน": 8751,
      "##จากเขา": 8752,
      "##ตัวใหญ่": 8753,
      "##ไม่ได้เหรอ": 8754,
      "##เห็นหน้า": 8755,
      "##ต่อพระเจ้า": 8756,
      "##แบบว่า": 8757,
      "##บ้านั่น": 8758,
      "ว่าเรา": 8759,
      "ข้าขอ": 8760,
      "มาดู": 8761,
      "##เริ่มจะ": 8762,
      "ประเทศ": 8763,
      "##อยากให้ผม": 8764,
      "##สู้กับ": 8765,
      "##โอเคไหม": 8766,
      "จำได้ไหม": 8767,
      "##กี่คน": 8768,
      "##ท่าเรือ": 8769,
      "##ะพu": 8770,
      "##เบิร์ก": 8771,
      "ด้วยความยินดี": 8772,
      "โยน": 8773,
      "##เนสซ่า": 8774,
      "หยิบ": 8775,
      "##เนเธเนเธเธ": 8776,
      "300": 8777,
      "pr": 8778,
      "นิก": 8779,
      "พนัน": 8780,
      "ฮี": 8781,
      "ใหญ": 8782,
      "ไหม": 8783,
      "##มาม": 8784,
      "##สตี": 8785,
      "##ปปี้": 8786,
      "##ach": 8787,
      "##มาทำ": 8788,
      "##นะเนี่ย": 8789,
      "ผมต้องไป": 8790,
      "เขาไป": 8791,
      "เขาไม่เคย": 8792,
      "##ไว้ได้": 8793,
      "##ลงมาจาก": 8794,
      "##ต่อกัน": 8795,
      "##หรือไม": 8796,
      "##หมดเลย": 8797,
      "ข้าก็": 8798,
      "##คืนชีพ": 8799,
      "##แก่ผู้": 8800,
      "##าล์": 8801,
      "##บรรพบุรุษ": 8802,
      "##our": 8803,
      "เลน": 8804,
      "##ซื้อของ": 8805,
      "##สิ้นดี": 8806,
      "##เตรียมพร้อม": 8807,
      "พร้อมกับ": 8808,
      "ช่างมันเถอะ": 8809,
      "##ชุมชน": 8810,
      "##ost": 8811,
      "##มะเร็ง": 8812,
      "นิ้ว": 8813,
      "เด็กซ์เตอร์": 8814,
      "say": 8815,
      "บรู": 8816,
      "พึง": 8817,
      "ว่านาย": 8818,
      "##าส์": 8819,
      "##งำ": 8820,
      "##สากล": 8821,
      "##นิสัย": 8822,
      "##คุณต้อง": 8823,
      "##คุณกำลัง": 8824,
      "##นี้แล้ว": 8825,
      "##ในเรื่องนี้": 8826,
      "##กันเอง": 8827,
      "##ตัวเล็ก": 8828,
      "ที่มัน": 8829,
      "ที่บ้าน": 8830,
      "##ประเมิน": 8831,
      "นายอำเภอ": 8832,
      "##ช่วยกัน": 8833,
      "##เบิ้ล": 8834,
      "##าดา": 8835,
      "##กระด": 8836,
      "มาที่นี่": 8837,
      "อยู่ไหน": 8838,
      "##แมรี่": 8839,
      "##กล่าวหา": 8840,
      "##เผื่อ": 8841,
      "แต่อย่าง": 8842,
      "##โลว": 8843,
      "ฉันต้องการให้คุณ": 8844,
      "มันไม่ใช่เรื่อง": 8845,
      "##เธฑเธ": 8846,
      "##เเม่": 8847,
      "##คริสมาส": 8848,
      "##เฝ้าดู": 8849,
      "##บอกผมว่า": 8850,
      "##ชันสูตร": 8851,
      "ค้นหา": 8852,
      "ตราบใด": 8853,
      "##พฤติกรรม": 8854,
      "อนาค": 8855,
      "ก้าว": 8856,
      "อธิบาย": 8857,
      "##ไคล": 8858,
      "##ซัน": 8859,
      "##สเป": 8860,
      "##แองเจ": 8861,
      "##ทิ": 8862,
      "##ทรา": 8863,
      "##ถ้ำ": 8864,
      "##ER": 8865,
      "##ฅเธฐ": 8866,
      "##ได้ด้วย": 8867,
      "##ให้เกิด": 8868,
      "##ให้เสร็จ": 8869,
      "##มาตร": 8870,
      "##ระยำ": 8871,
      "ไม่ก็": 8872,
      "ผมจะทำ": 8873,
      "##ในคืนนี้": 8874,
      "##รู้ได้ไง": 8875,
      "นายไป": 8876,
      "##เยี่ยง": 8877,
      "##หนึ่งของ": 8878,
      "พ่อฉัน": 8879,
      "เกาะ": 8880,
      "ฟังน่ะ": 8881,
      "##เป็นผู้นำ": 8882,
      "##เข้าไปข้างใน": 8883,
      "ทั้งๆ": 8884,
      "##พวกเขามา": 8885,
      "##ings": 8886,
      "##ยากาศ": 8887,
      "คุณรู้ได้ยังไง": 8888,
      "##ร้านขาย": 8889,
      "หมอนี่": 8890,
      "หมอนั่น": 8891,
      "##คอยดู": 8892,
      "##ยอดเยี่ยม": 8893,
      "##เป็นเพื่อนกัน": 8894,
      "##ฟฟ์": 8895,
      "##รุ้": 8896,
      "21": 8897,
      "Br": 8898,
      "ตี": 8899,
      "##พ่อน": 8900,
      "##พิล": 8901,
      "##ปิน": 8902,
      "##ที่ลูก": 8903,
      "##ที่ใหญ่": 8904,
      "##เร็ค": 8905,
      "##เราน่าจะ": 8906,
      "ฉันอาจ": 8907,
      "##ของพวกเธอ": 8908,
      "##เขาอยู่": 8909,
      "##มันด้วย": 8910,
      "ผมเจอ": 8911,
      "##นี่สิ": 8912,
      "ที่ไม่": 8913,
      "แล้วผมก็": 8914,
      "##ขึ้นแล้ว": 8915,
      "##เท่าที่จะ": 8916,
      "##อันยิ่งใหญ่": 8917,
      "บางทีเรา": 8918,
      "เช็ค": 8919,
      "เน": 8920,
      "##ลิป": 8921,
      "ไม่เป็นไรนะ": 8922,
      "น่าสนใจ": 8923,
      "ถ้าคุณต้องการ": 8924,
      "แต่อย่า": 8925,
      "##เวลามาก": 8926,
      "##ดวงจันทร์": 8927,
      "##คบกัน": 8928,
      "เคลียร์": 8929,
      "และนั่นคือ": 8930,
      "แซน": 8931,
      "และนี่คือ": 8932,
      "รองเท้า": 8933,
      "##โฆษณา": 8934,
      "ฝ่าย": 8935,
      "ห่าง": 8936,
      "อิส": 8937,
      "##อัง": 8938,
      "##อัจฉริยะ": 8939,
      "##ไถ่": 8940,
      "##มวย": 8941,
      "##งเธฒเธก": 8942,
      "##ทเน": 8943,
      "##จะอยู่": 8944,
      "##เป็นคุณ": 8945,
      "##เป็นอิสระ": 8946,
      "ฉันถูก": 8947,
      "ฉันบอกคุณ": 8948,
      "##ครร": 8949,
      "##นี้นะ": 8950,
      "##เขาเลย": 8951,
      "และอีก": 8952,
      "ผมมา": 8953,
      "เธก": 8954,
      "##หาเงิน": 8955,
      "##ขอความช่วยเหลือ": 8956,
      "##เซลล์": 8957,
      "เจ้าชาย": 8958,
      "ดีจัง": 8959,
      "##ถ้าเรา": 8960,
      "เมื่อกี้": 8961,
      "ใครเป็นคน": 8962,
      "เชอร์": 8963,
      "##สำคัญหรอก": 8964,
      "##เช่นเดียวกับ": 8965,
      "##ขว้าง": 8966,
      "พอดี": 8967,
      "##reat": 8968,
      "นั่นคือเหตุผล": 8969,
      "ตั้งใจ": 8970,
[...]
